Transaction
Ġrifle
Ġstagnation
Ġexclus
Ġsucceeded
Ġmiss
UGE
capacity
ĠHol
Ġhat
KN
ova
Ġmodesty
ĠNational
ĠVide
Ġflood
Ġvisas
Ġglaring
Ġentertain
ĠPerformance
enabled
LIB
ĠCoco
Ġdoubtful
Ġanalyzing
Ġoutcry
ously
ĠIndust
ĠNath
ĠLionel
Ġviable
Ġshit
ĠGothic
Ġextremists
Ġmigrated
ounded
ender
ompl
Ġslowed
Ġ1983
eight
ĠESPN
ĠAgreement
Computer
Ġ242
ĠCharity
Ġpopcorn
palestinian
Ġevents
ĠRough
ĠFrankfurt
oa
Ġrotated
ĠHubbard
Ġ,"
WH
ĠCalder
ĠFund
Ġbottled
ĠWi
Ġdiplomatic
ĠRecently
Ġentropy
Ġinvestigation
Liverpool
Ġterminating
ĊÂł
otton
Ġcorros
itate
ĠMaiden
Ġimprovised
ĠProgram
irmation
Ġdrains
ĠAntarctic
Ġdelve
469
ĠLuo
Ġpsychologist
ĠEliot
ĠTWO
aurus
Williams
Ġdigestive
ĠNASL
Ġinterstellar
Ġoffenses
istrates
ĠMemor
Morning
Ġ118
ipeg
ĠCAL
Ġdismissive
IPS
Ġpostage
Ġstabilize
Ġevolved
Ġcampaigns
ĠAnalytics
ĠTillerson
Ġsubst
ĠFields
Ġexponentially
tarian
ĠNeal
ĠExtra
Ġfabricated
amoto
Ġprohib
):
Driver
ilo
ibur
Ġer
ĠForce
(
Ġ330
ĠCul
Dear
ĠPayment
ĠTrident
Leader
ĠBes
ĠPhil
Ġhurts
ĠTer
ibling
leasing
Ġsuperiority
Ġconventions
Ġadministrative
ĠFolder
951
Ġmarry
Ġspots
uous
ĠExplan
ĠRoland
Ġchords
aukee
ĠADHD
Ġsane
ĠJed
ãĤ¼ãĤ¦ãĤ¹
istance
Ġ124
izers
Ġrecipient
Ġfirmly
ĠJiu
Ġaudi
JP
Ġgoes
Sir
gmail
Ġthen
âĢĲ
Ġallegiance
ĠEmerald
ĠMana
Ġbutterfly
atever
Ġeyeb
Ġcelebrations
stores
Col
material
Ġenrichment
Ġillustrates
Ġsemester
fing
ould
Ġpurchasing
iate
Ġly
Original
ĠUnable
ãĤĬ
ĠMoor
Ġfatty
Ġinsurrection
req
Disk
Ġdown
Ġspelled
TED
ancers
140
Îµ
JUST
Ġerrone
ouf
563
ĠIdeal
Ġprotective
ichick
Ġevaluating
keys
vl
Ġholiday
Ġ1912
Ni
Ġintruder
omo
ogan
Ġperpetrators
ĠNationwide
ĠMines
portion
^{
Ġnonprofit
Ġenlarg
756
Ġgoto
ĠSpell
Ġtheat
ĠCerberus
Ġacad
ĠClover
ĠPeace
Ġpaving
Ġmemos
046
Jim
ĠDemo
Ġthrust
Ġ284
Fourth
ĠLaun
ĠThis
ĠCharacter
Ġsinging
Ġ248
Ġpreempt
Ġtransitions
umm
intelligence
ĠUnlimited
but
Ġprintln
aundering
Dri
UN
SER
Ġcomment
Ġbeneficial
Ġscorn
Ġpenned
Ġtomorrow
xf
Ġorally
Ġcryptography
64
Ġnostalgic
Ġmedically
Ġcrust
Ġcorrupt
Ġbipartisan
Nick
ĠChelsea
Profile
Ġdancers
ruce
Sep
Ġacknowledges
Ġtunes
otten
ĠPis
cit
Ġconcerted
¨
Ġtongue
Ġcontr
Ġremarkably
Ġpropri
Ġmatt
ĠClerk
ĠNormandy
Ġsometime
Untitled
Ġterrorism
ĠDyn
Ġphysically
Dat
ĠEleven
Ġbrought
Ġ66
ivation
cca
educated
nikov
ol
Ġantagon
Ġ222
Ġ630
668
ĠConsumer
Ġfighters
itor
estival
Ġbeverages
ĠDeadline
ĠDesigned
Ġmitochond
avid
Ġvein
Ġtools
launch
ĠINT
ĠCavs
Saturday
Ġcalculating
Ġhandling
ĠRPG
Changed
Ġinhib
Ġcomplicate
Ġhunter
ĠCha
Ġaccumulate
Tile
Ġ425
rehensible
pb
Ġexceedingly
ĠReds
Ġcannibal
Ġmercy
Ġdissip
ratch
Pre
Ġnephew
ĠHills
Ġhey
RAW
ĠSamsung
Ġturbines
ĠObama
Ġconsiders
ĠSherlock
ĠCompatibility
ĠTruly
760
Ġshortly
ĠGÃ¶
apers
ĠRather
rica
052
Ġland
ĠKel
ĠChamberlain
ĠGoals
Ġmysterious
Ġperformer
Ġdescriptions
Ġtheft
Ġprospect
ĠCrom
ĠMMR
ocene
Ian
soever
Ġvind
Ġsket
Ġallot
ĠLorenzo
681
Ġdragons
Ġsunglasses
trans
Ġsecuring
inder
Ġappliances
emate
Ã¨
Ġdisappear
CF
ĠTowards
Ġinclud
Ġcrafted
Ġunbeaten
([
Ġbestowed
ĠServer
Ġpragmatic
Ġnozzle
anime
Ġcooperate
art
holiday
covered
posts
ĠFORM
started
Ġ372
orld
Ġevery
Delivery
Ġlasted
Ġprobabilities
Ġfeeling
Ġperiods
Ġsignific
ĠGrade
ĠWhitney
Place
Ġteleportation
Ġpredominantly
Ġlongest
Ġformer
availability
ĠTime
USD
opp
Ġreversal
ĠFifth
Ġadvancing
ĠStaff
Ġbleach
Ġhanded
Ġconstituency
Ġwhit
Large
Ġ208
Analy
Ġfirearm
ĠRunning
Ġallowable
ĠVim
ãĥĵ
Ġobs
phony
ĠBeginning
Nusra
Ġexcellent
battle
Ġanime
Ġdecentral
]."
Ġsubsid
ĠAriel
ĠRepublicans
ldon
Cost
inline
ĠLongh
ĠPodesta
Ġsh
Ġsausage
Ġannouncement
Ġbased
Ġpass
adiator
Ġpersona
ĠMethod
Ġobsc
hours
Ġdioxide
Ġclearly
ĠAmerican
Ġsuff
Ġcollection
Ġtherm
Ġtuna
ĠPax
Ġcreatures
laughs
ĠAbd
new
Ġla
AFTA
75
Ġscrolling
tiny
ĠChrist
Ġjunction
ĠCost
Ġrogue
ĠLann
Pocket
Ġterminal
Ġproc
byss
uits
Ġpatriot
ĠCards
Ġschizophren
MU
ĠBorg
Ġfifth
Ġ1961
Ġcontingency
Otherwise
Ġparticle
osh
ĠWitness
hover
ĠVaughn
nature
ublished
Ġpurchased
ĠOmaha
env
ursive
erville
LIN
Ġgoodbye
islam
Ġbud
ENCE
ĠCNN
uron
Ġtechnicians
Ġ###
Ġheadphone
ĠTactics
china
ĠðŁĺ
LS
ĠTYPE
oaded
Ġreactionary
bring
Ġ625
Ġsidewalk
920
Ġassign
Theme
223
ĠPOW
Ġawards
ĠInstagram
Ġextraordinary
archment
Ġthoroughly
Ġstrengthened
ĠCitiz
ĠWillis
Ġtem
Download
HOU
ĠCharacters
VP
Ġrib
ĠOx
Ġparaly
Ġarrests
looking
imil
%:
Ġprovocation
Ġthere
ĠHalifax
Ġgoing
ĠFresno
Ġeverything
Ġpiles
lbs
ĠPNG
ĠCay
Ġsteering
Ġacclaim
prem
Ġunsuspecting
Ġfres
8
ĠSending
UGH
Ġscam
rant
ĠHamm
Ġanswered
ĠVictory
ĠSkyrim
Ġappointed
Ġleng
").
Ġexceeding
Ġkneeling
þ
Ġgall
Ġtrunc
Ġfluorescent
African
Ġunmarried
Ġplush
Due
ĠGrid
ĠMaced
ĠProtoss
Ġblo
onies
ĠSr
Ġscore
Ġincarn
Ġtestim
Ġroaring
ocious
Ġnotified
ittle
Ġ77
Ġwebsites
Ġgrapes
ptic
omach
Ġbron
Ġtyr
shapeshifter
ĠEmil
Ġgenital
oz
ĠPanel
ĠCth
ĠDexterity
Ġdism
Ġheartbeat
Ġgoverning
å
ĠHein
Ġpsychology
ĠLar
esian
ĠWeston
Ġunavailable
Ġplaque
ĠKS
events
Ġ1975
......
Ġblood
ĠFab
enth
ĠVIDEOS
ioxid
racial
Ġmiraculous
ĠFract
ĠHolden
Ġreferences
Ġmirac
PB
ĠPlanned
ĠADD
ĠVance
ordinate
Ġhanding
Ġpeaks
ĠScrew
Ġforay
Ġadvisor
ritical
Ġmaneuvers
Ġshareholder
ĠZoo
Ġromance
Ġimprovements
cerning
Ġprocessed
ĠSpider
ĠRescue
oops
Ġcoming
ĠJoint
Ġstorylines
Ġretina
Ġmuseum
Ġalerts
Ġsubdu
Ġresize
Ġundergone
Ġbeauty
icide
Ġwithout
Ġmut
ĠAlt
Ġimpede
Ġsidew
ĠReviews
ui
Ġbarrel
Ġdisob
Ġtechno
Ġconduct
Ġantibiotics
Night
Ġcount
atari
ĠPv
ĠUb
.[
ĠWade
Ġfox
ende
Ġliaison
ĠRS
Ġutility
Ġrecall
":"/
ĠNak
ĠIdle
Ġske
Ġmemorandum
Ġambassadors
Ġhunting
Ġyacht
lor
Ġdisaster
ĠLiquid
Ġgroups
Ġswoop
thing
ĠRape
Form
ĠMunicip
js
Ġenzymes
Solid
theless
ideshow
Ġunexpectedly
Ġrichness
Ġsedan
Ġsuggesting
Ġfrequently
Lu
Ġlar
Ġ1
Ġperpetrator
Jam
Ġexecutives
ĠGol
ettings
Ġjerseys
Ġevenings
ĠOfficer
ĠRena
Ġmint
ĠRender
Ġyoungest
ĠDra
ĠSPEC
ĠIllegal
burg
ĠHab
ĠSTATS
ĠImran
ING
Ġstub
umes
Much
irth
Ġofficially
ĠMau
Ġhyster
WAYS
Ġhomepage
Ġejected
Ġpits
Ġconquer
Ġmystical
Ġdefending
968
Ġpleasing
Ġtrench
emade
Ġmarrying
Ġnearing
ĠMaid
orter
#$#$
trop
ĠAnthem
arget
sey
Ġliquor
ĠCyrus
VERTISEMENT
Ġtraged
Ġconflict
ĠCra
ĠTu
Ġwrongful
red
ampa
Ġbystand
Ġplainly
ĠClaus
Ġcro
MJ
396
ĠDRAGON
ĠSutton
ĠSword
aan
ĠCohn
Ġgaping
draft
ĠYemeni
LinkedIn
Ġoptimism
ĠAnn
Ġcheckout
sup
swing
Ġtongues
480
Â¨
lers
Ġinfantry
organ
ĠEas
Ġweeping
Ġconcerns
ĠBeatles
ĠHuntington
ĠFabric
inent
Ġnest
Ġerosion
Ġbandits
ĠGraveyard
asking
ĠMLA
Ġmajesty
Anderson
ĠPH
Ġairst
ĠRecording
Ġshielded
else
ĠSpit
uk
305
antry
float
Ġì
ional
order
Ã«
Ġsliced
OTHER
ribune
Ġgold
Ġcontinents
Bottom
Arsenal
Ġcarriage
ĠBall
hew
Ġwhipping
ĠLearning
Isa
Ġsensitive
pend
Ġflat
Ġnin
Ġvascular
Ġ1974
ĠOxford
Fund
ANT
ĠReyes
Ġnervously
Ġobservations
ĠDill
Ġ360
Ġ//[
Ġinjury
Ġreconstruction
Ġrestructuring
Ġling
ĠSiberia
Ġcents
pert
0
Ġsmart
astics
Ġemployer
fm
Ġmultimedia
girlfriend
ĠPage
Ġvide
wal
CRIP
bley
ĠJarvis
burgh
ĠGiant
grad
document
ĠCommentary
Ġapologised
allery
Ġshading
Ġpurposefully
itta
Ġbene
Ġextending
*)
ĠValiant
locking
ĠÏ
ĠEN
Ö
Ġfairness
Ġbetween
threatening
ortex
ĠExperimental
Ġding
Ġdispleasure
ĠHUD
ĠCash
Ġovercl
Ġc
Update
cludes
ĠHannah
ĠXu
Ġhistorians
innon
Ġnaval
Ġdemon
uated
Ġignorant
Ġimprisoned
ãĥīãĥ©ãĤ´ãĥ³
ĠFALSE
Ġappetite
ĠLiberties
ĠTome
Ġsimulated
ĠEmir
rients
Ġgeared
Ġencamp
ĠScar
HH
650
Ġass
ĠBills
arag
ĠSoutheast
cross
Ġpensions
acers
ĠSystems
Ġindications
ĠAlready
ĠTorah
Ġdissect
Ġasteroids
ĠBas
Ġflourish
obj
GoldMagikarp
Ġhardness
Ġsided
Ġtrips
kh
Ġ${
ĠAtlantis
ĠScouting
Ġenriched
worst
Ġfuriously
ipolar
Ġevident
ĠSilver
ER
Ġresults
ARB
Ġseized
bul
Ġobjectives
Ġdearly
ĠBRA
ĠEthan
Ġwedd
ĠSanford
Ġinfographic
Ġ1959
ĠDOJ
Ġcalibration
ĠBrooklyn
ĠAfghans
Ġmisconduct
Ġcorrections
ante
Ġsage
ucl
Ġveterinary
parents
thouse
Ġmisleading
ĠBrennan
azor
lived
Ġeclectic
ĠChevron
iths
Sham
Ġcarries
inion
Zone
Submit
ĠWarhammer
ĠReferences
ĠFeaturing
Ġsn
ĠCulture
ĠTopics
Ġlodge
Ġsens
Ġped
Ġarena
ares
Ġventured
Ġranc
ession
ugg
ĠMig
It
Ġjog
ĠWATCHED
ĠAES
ĠRodney
ĠTH
annabin
Ġlegislation
Ġexperimental
Ġcoast
ĠThrones
ĠAuthorization
ĠBuff
ĠTears
ĠWHITE
ĠHeisman
Ġsoccer
aku
ĠDominican
achusetts
i
ĠCurtis
Enh
Ġknocking
CAN
oggle
brance
bind
stud
Yu
Ġpharmaceutical
Ġboxed
trip
clinton
ĠCaps
Ġdescription
ĠPhotoshop
ĠThe
ĠGent
Ġtackled
cum
Ġminced
Deep
Ġpraying
ĠMorph
ubuntu
ĠAFC
ĠVS
rom
Ġcombining
0000000
>.
zero
ĠFil
uum
amboo
ĠPrelude
58
munition
ĠComcast
ĠSELECT
Ġpierced
Tap
Ġpers
Ġmagically
ĠThese
aline
aspx
Soviet
Ġhopes
iden
Ġang
owski
ĠGleaming
Ġswamp
rowd
Os
Ġarrangement
Ġcables
Ġastronaut
ĠSears
Ġtranscend
ĠRolls
idad
Ġ702
Ġmor
Ġsame
Ġprogrammers
ĠManson
Ġcaffe
ampion
ocon
ĠOnly
74
Ġincoming
åĳ
Ġautomate
ĠRust
ãģł
ĠVolume
Ġrequirements
ĠYug
plugins
Champ
ĠWorst
ĠPressure
Ġunrel
Ġted
ua
ĠCentury
Ġdisliked
omon
uating
ribly
than
ĠTemper
Ġemphasizes
Ġ+=
ĠJere
Ve
Ġspiked
lete
Ġoutp
ĠAdditional
Ġdeliberate
Ġfeasibility
éĽ
Ġmammoth
Ġleft
Ġsmashing
ourgeois
Ġrivalry
Ġundertake
Ġ:=
esm
ĠVelocity
ests
ë
ĠPT
Ġeffortlessly
Ġstint
Ġincomplete
ichen
ĠCF
ĠFlavoring
Ġdelegation
ancer
cean
Ġ540
acion
Ġpm
ĠPred
ĠOlder
ĠScore
Ġsaved
active
ĠFridays
ĠEstablishment
Ġevacuation
Ġmemes
Ġfoster
Ġcareless
ĠAirways
mor
Ġinsult
Sem
kr
ĠFalk
ĠCambod
Ġ233
ĠGut
Ġpsych
Ġphenomena
ĠIPS
Ġirritation
ĠPeriod
Ġdisplaced
ĠHilton
ĠJah
Ġmeager
ĠStarfleet
Ġseasons
Ġhelpers
ĠMiche
Ġparan
lb
ĠKathryn
ĠSlug
Ġmultiplying
ĠCyp
aga
onement
ĠKa
Comb
Cert
ople
orset
Ġsynthesis
dq
Ġbrav
Ġrumored
Ġbulb
Ġmasked
anqu
ĠBreitbart
ĠSchro
Ġonlook
rentice
minus
Ġleaf
Ġstamp
Ġunspecified
ĠLisp
Ġmassacre
Ġlament
Ġfarewell
ĠMRI
Ġinduce
Ġacquired
ĠProvided
compliance
ãĥ¼ãĥ³
usc
Ġfrozen
Ġdev
ĠArmed
actory
ĠSa
Mem
Ġdangerous
Ġtickets
ĠPopulation
medium
Ġapocalyptic
="/
USA
ĠBombs
nw
Ġunintention
Ã°
712
ĠMovie
Ġst
Ġfunctions
Ġanxiety
ĠDanielle
roll
ĠPles
icators
Ġcanine
Ġstick
Access
gans
Stone
Bs
Ġrecovers
ĠCam
Ġescaped
Ġplunged
Ġcontention
ĠSpec
ĠGlow
selling
amba
Dex
ĠMorales
ĠDates
including
Function
ĠDenis
ĨĴ
iership
ĠScandinav
Ġhumor
Ġspecifics
Ġanthem
ĠCongo
amph
entary
Ġret
Ġkidding
ĠPuzzle
orned
ĠWealth
Ġneck
iguous
Ġsubsequ
Char
ĠDAC
ĠSail
ification
umph
dyl
abl
ĠLibertarian
Ġm
Ġterrain
Ġmeltdown
Ġsequences
ĠApps
states
Ġpuzzling
Ġsuicidal
Ġpreliminary
arna
ĠVisitors
atives
ĠSchwe
ummy
regnancy
bled
ĠHorton
istry
Ġshould
Ġcenturies
278
Ġenvironmental
ureen
closure
Timeout
Ġcollaps
Ġintentions
Ġ=================
Ġlength
Ġgreedy
Ġemotion
sels
Ġcontainment
152
Ġ1915
Ġenthusiasts
otent
idence
Ġdiscontent
appers
consumer
Female
Ġduo
ĠMegan
Ġ(/
ĠParker
ocusing
Ġstocked
Ġreview
Ġdetractors
OULD
Ń·
Ġbest
ĠWyoming
ĠVisual
Ġpreview
ãĥĢ
Ġhighlight
ĠWWE
ĠCompared
ENA
mediately
ĠBeard
Ġextravag
ĠHAL
ĠVa
lin
cultural
ĠKimberly
Ġthrough
ĠHabit
Ġsexy
ĠInquiry
COM
DO
ĠTorrent
WE
Ġpowered
lege
ĠâĢĶ
Ġimagery
ĠACS
B
Ġexpand
Ġassistant
Ġovert
ĠComment
Ġinsufficient
Ġaffidavit
Ġroyalty
ĠBRE
Ġ[*
Ġperpetuate
Ġhashes
Ġacknow
is
Ġfingerprint
ulating
ĠSophie
Ġunavoidable
ĠLeica
Ġnods
Ġropes
Ġpartying
Ġsubdivision
Ġstabbed
334
Ġmonuments
ĠClosed
Ġemulator
Ġnuances
Ġinund
eton
fields
Ġgif
ĠProgressive
Ġpos
aciously
localhost
Ġcortisol
Ġhero
Ġknocks
Ġtrait
Ġweakest
ĠAbove
authors
ĠOperations
Ġjustifying
osp
Ġresolved
STEP
Struct
1959
ĠSeg
Ġfunc
ĠJason
Ġreimburse
athed
herence
ĠPAGE
Ġhurdle
atinum
She
Ġfixed
Ġdebate
Ġpersons
Ġrepresenting
onnaissance
ĠCathy
ĠHC
ĠLauren
rin
Ġ197
ĠCor
Tuesday
ĠConditions
Ġretail
igible
Ġalgae
Ġweb
ĠLouie
ĠGuardian
ĠStudio
ĠBeng
Ġstolen
ĠBACK
ĠTalks
ÿ
ision
Ġindemn
ifference
Ġpuzzles
éģ
Ġprism
782
ĠSanct
Ġwaiting
orum
kus
ĠProto
Ġlobbyist
ĠShan
ĠTelecom
WARNING
Remember
Ġacquisition
ĠRab
Ġw
ĠMetallic
rang
Ġmailbox
KS
pai
violent
Ġplug
ADRA
ework
å¹
Ġessay
Ġbaptism
irming
Ġconducted
Ġdistributor
ĠHandling
Ġcones
Ġlineup
Ġgluc
ĠSham
ĠRas
ĠFeng
Ġsuit
Ġconsole
inoa
Ġdye
Ġweakness
Ġrudimentary
ĠZIP
ention
Ġconstructs
Ġfailings
puted
Ġuntold
VK
ĠVanderbilt
Ġcasc
AH
Ġestimate
ĠCOP
ĠWembley
ãĢı
ĠClaw
Da
ĠYanukovych
Ġadjusts
Ġvict
Ġreplaced
asaki
Entry
Ġgenerosity
Movie
ĠDurant
ĠWednesday
Ġ..
xb
ĠOsiris
))))
Ġaccelerating
ĠVoldemort
ĠAdds
ĠKeeper
ĠPieces
Ġsculpt
Was
isol
ĠASUS
anamo
ru
nutrition
tics
ĠTwo
Ġsurrender
Ġassass
ĠGators
and
Ġwildfire
zyk
ouched
ĠExxon
Ġrelaxed
Ġinhabit
Ġresidual
Ġrepresent
ĠRiley
ĠTrans
Ġbasketball
Ġhorde
ĠRobb
ĠRising
sheet
Ġprovides
Ġdaytime
reement
Ġreservoirs
Ġtaught
ISIS
ĠLynch
Ġoccupied
height
Ġtruths
ĠACLU
Ġditch
ĠChr
Justin
ĠLost
ĠChargers
ĠNEC
zl
ĠInstallation
rano
452
Ġdefinitive
Ġabdom
team
Ġder
Ġmodest
ĠAster
quit
acking
isco
ĠAlibaba
avoid
ĠIssue
ĠBrit
Ġcamouflage
Without
States
ified
ĠGarc
Ġnose
ĠPlayStation
Ġvoted
Ġinstit
Ġ424
ĠInst
Ġdiction
ĠMalfoy
anasia
Ġbottleneck
Ġreservoir
Ġtightening
ĠBaxter
Ġox
stat
iban
Ġsurgeries
ĠMercenary
issues
Ġalleged
June
dest
verett
Ġupwards
appropri
Ġbaseline
Ġreconnaissance
Ġmythical
Ġanarchism
ski
sb
img
Ġmixture
ĠProtestant
bringing
pronouns
Ġsummar
Marvel
750
ĠGHC
ĠEnhance
Tube
}}
ĠCaucasus
ĠASP
ĠMcDonnell
video
Ġdepl
Ġprepare
izon
Ġbolt
visual
=-=-=-=-=-=-=-=-
ĠSultan
ĠZeus
ļé
ĠChe
Ġwelcomes
Ġcommunists
Ġerupt
ĠHandbook
acly
Ġbull
Ġwonderfully
679
Ġhomes
ozo
mia
keyes
________________
iking
tank
Ġthigh
ĠMcKin
Ġprim
Ġdiagnosed
ĠFoo
Ġ137
Ġconfounding
heses
Ġtripod
/âĢĭ
Ġmechan
Ġexcise
ĠCharm
Ġlakes
Ġhandmade
394
ĠTypes
Hug
ouse
Their
Ġfounding
============
Ġenjoys
Tue
Ġcruising
Ġultras
Ġdisemb
Ġoval
razy
615
Design
ĠGen
Ġ\
coll
ĠCharg
VIEW
ĠShade
Ġjour
Ġ147
Ġplat
ĠTwain
MY
ĠFriedrich
Ġscapego
ĠIMF
Ġubiqu
ĠVR
Ġoverrun
ĠHuckabee
Ġdab
ĠAgo
ravings
Ġupgrades
maybe
ĠFinding
Zen
ĠHighlands
ĠSPORTS
Ġinstall
Ġcharity
Ġirreversible
Ġsure
impro
ĠVick
Ġnations
Ġselector
Ġhandled
riks
ĠWong
annon
Ġahead
hner
Ġsprang
ĠMathemat
ĠArmageddon
Completed
Ġrack
ĠFranÃ§
Ġchapters
ĠEli
Ġquarter
ĠBeast
Ġpret
ĠBulgar
ĠFitzpatrick
Ġ15
Ġincome
Ġsummoning
Ġcomplementary
ĠCortana
OSH
Ġdeft
inging
ĠMaw
oros
Ġviewer
dd
ĠCentre
ĠEconomics
Ġdigestion
inson
ĠDonation
ÃŃn
ĠApocalypse
urther
Ġwell
Ġcreature
Ġwartime
Dialog
Ġopposed
eny
kn
Ġdefine
urb
Ġfurious
ĠKM
Ġphilosophies
painted
0000
Ġrests
score
Ġspur
Ġdeported
urai
ãĤ·ãĥ£
Ġvitamins
ĠNish
ĠLastly
vity
MORE
Orderable
Ġrose
Ġregulations
Ġnos
ĠLanc
conscious
ĠInvest
Ġplethora
IER
erential
ĠZo
ĠFarmer
ance
Ġhed
ĠLove
Ġpregn
matic
ĠCah
ĠIMAGES
Ross
ĠInterpret
ĠScenes
Ġmathematic
pattern
301
"?
verified
ĠBu
Ġbananas
ĠSocket
Ġprayed
ĠContinental
ĠWiz
Ġmillion
Ġlik
ĠManual
tk
ĠHindus
ĠSabbath
Role
!!"
ĠRadeon
resent
Ġderogatory
271
ĠStrange
ĠGir
apolis
Ġimage
Ġdocker
ienne
Ġspeech
ĠGins
Ġbasin
orf
ĠEW
Ġtidal
Rod
Ġeld
Ġarousal
EFF
ĠFold
Having
Ġrave
position
ĠRebecca
Sweet
Ġwastes
ĠArchitecture
benef
Ġdun
error
Ġapologizing
Ġnorthern
Ġlodged
HF
olphins
ĠDisable
Ġeleph
Ġswitched
Ġpretext
enes
Ġplummeted
ura
llan
Ġbounces
Ġepile
ĠColo
Ġmaterials
ĠLIKE
ilers
ĠLoll
ĠKul
icate
ĠX
door
deep
Ġdefeat
İĭ
Ġ375
Ġ201
Ġ1000
Ġivory
ĠSciences
ĠWikileaks
ĠAddiction
life
ĠWheel
Ġmolecules
Ġsolves
ivalent
Ġlogical
Ġfulf
Ġtractor
Ġartific
ĠEz
mot
Ġtho
Ġ295
Ġfearsome
elsh
à
ĠThanksgiving
Ġkings
ĠFerrari
Ġtorment
Ġcogn
Frank
Ġwarehouse
ĠSUB
Ġtrades
Ġinfections
ĠBot
STEM
Thousands
Ġcapt
Ġ................
Ġempire
626
Developer
Ġprecedence
redo
ĠCRA
Ġshards
saf
ĠPole
Ġpreached
Ġ}}
Ġconcern
ECH
Ġspree
ĠguiIcon
por
ĠKentucky
ĠBorder
Ġstaying
IGH
igure
ĠGn
Ġfurnished
Ġargs
very
ĠSlov
Ġdash
growth
Ġdevise
stakes
Ġrarely
ĠSaiyan
£ı
Ġpulling
Ġservants
ĠFlight
Hal
Ġbrewing
north
Ġrampage
Ġ---
Ġko
Comp
Ġencomp
acks
Ġovertake
heavy
otonin
isoft
ĠEstimates
Ġadvocated
ĠSubscribe
Ġhuh
Ġhurting
Ġec
Ġ374
Ġagencies
Ġaka
Ġpot
achu
adult
Ġaccessing
ĠPer
131
Ġuncover
Ġyoungster
Ġaides
Ġinstalling
parse
ĠDaryl
claw
ĠHanna
Ġbalk
doors
ohn
Ġnovice
Ġprofess
ĠPuppet
Ġjealousy
idae
plug
til
Pop
gd
military
Ġcentralized
546
ĠMerge
Nut
282
Ġball
Ġnotions
Ġthose
Ġkidneys
Ġcoating
Ġunique
Ġfarmers
-"
ĠAN
ĠPortugal
Ġhurry
ĠSwing
Ġneedle
ĠWor
sight
UID
wana
itud
heet
FIELD
Bring
ĠSuper
Ġconstraint
Ġcrem
Ġjurisdictions
Ġcler
Ġenforcing
ãĥ´
ĠAlberto
Ġnanop
Ġgunshots
ĠIdeally
mmmm
Ġlair
ĠZam
Ġsought
Ġhangar
ĠSo
090
claim
Ġeccentric
Ġinserting
Ġunions
isive
Ġrebate
buy
some
Ġcapacity
Reilly
Ġinitiatives
Ġpresided
engine
ĠQuÃ©
Michelle
ĠINCLUD
ashington
Different
Ġonstage
Ġinspected
strap
BL
ĠAlcohol
Ġharming
Ġfe
296
Ġcall
ĠBritons
acity
ĠBehavior
Ġuncomp
ĠAut
earances
Ġbasically
Ġtransforming
ensibly
ulk
Ġscripture
Ġexperien
Ġneighbourhoods
ĠPicard
Ġclim
Ġcollapse
Ġinsights
Ġcoaching
Ĥª
ĠCele
Ġaff
ĠLash
Ġmotives
ĠES
chrom
azer
ĠBarber
ĠCampbell
ĠFedora
stration
accept
Ġchests
Ġmicrow
Wikipedia
âĶĢ
ĠBeaut
MRI
Ġrecalling
Ġjustification
Ġtakes
clock
ographics
atility
ĠAkin
ĠNovember
isting
047
Ġdeclined
ĠMarxist
Ġmajorities
ught
Ġheated
ĠJack
Ġplayful
Ġvocal
Ġbackgrounds
oston
Ġgovernor
Default
ĠNetworks
Ġdramas
ĠDetection
Ġfreaking
pm
Ġdismissing
Ġsandbox
Ġknife
ĠRPGs
Ġado
98
emin
Ġtwisted
mess
Ġnegoti
ĠBurn
Ġsaw
Ġachie
perial
ĠMcConnell
ĠBest
TD
orting
Component
Ġdrums
ĠBangkok
ĠNun
Various
Ġprincipals
ĠHonour
ocr
thinking
iments
ĠEisenhower
arial
ĠPublication
oki
Ġimg
Ġdraft
ĠSales
äº
othy
:'
Ġpeasant
Ġabrupt
ĠSpawn
enemy
ĠCrow
Ġak
ception
Ġwand
iel
Ġselective
atra
362
Ġchron
Http
EMA
ĠShell
ants
Ġlaptop
Ġhesitation
Ġcommunist
Ġcardiovascular
Ġdatasets
places
imet
ĠTry
querade
Ġnegligence
Sk
Jennifer
oved
ĠSpirit
ĠGrounds
ĠClo
Ġsearching
icken
ossibly
ĠCorey
Ġcondemn
Ġdes
TW
Ġparalyzed
Ġscrews
Ġoffensive
Ġcentre
Ġcontrol
Ġmanifests
Bee
List
Ġprost
Ġtribunal
Ġreefs
alse
Ġtim
ĠTak
Michael
Ġbundle
obil
Ðº
çī
ĠMind
Ġoptim
Ġbool
Ġaisle
Ġmisery
kt
Ġexact
Ġmindful
Ġindepend
Ġderived
Ġhood
atory
Ġpetition
ampires
Ġcloning
Ġmoon
ijk
ĠOverall
endiary
Ġachieve
Ġattributes
Ġintensity
Ġpaved
Ġriddled
276
href
Ġincentive
ĠHey
nown
ĠBuchanan
aniel
314
ĠFiscal
ĠChao
Ġvape
stan
usions
ĠShopping
abi
EAR
Ġgrounding
ĠDW
Ġroof
'?
Ġvener
addons
Ġrespective
Ġcalibrated
ĠDaniel
ĠCannabis
ĠTr
'm
ĠRanking
Ġhypers
ascar
ĠAlec
ĠUn
Ġcancelled
ĠCit
ĠRequirements
Eh
Ġate
ĠSteel
Dark
Ġunforeseen
rox
ĠGladiator
ĠAssistance
Ġdiversion
Ġclenched
ideos
ĠVO
Ġcitiz
Ġdiploma
NS
Ġstarts
hak
Ġspaces
"></
integer
ĠRaqqa
Ġrept
whether
Ġproprietary
loc
Ġheightened
465
×ĳ
ĠFury
250
Ġdetermination
D
vert
ĠHayes
Ġinvasion
ĠBerm
Ì
zing
Ġk
@@@@
Ġdead
achel
central
ĠRudd
Ġfir
ĠGrav
Ġlegend
Ġpointing
ĠLighting
ĠAxis
ĠDee
Ġinexplicable
Ġbikes
ãģĵ
ĠPRODUCT
Ġglasses
Ġtang
Jar
Ġprocess
wa
Ġstore
Ġdisgr
ractions
Ġbill
irs
Head
ĠFemin
ĠMandarin
Ġnotch
Ġgrid
ĠGlen
Ġskim
Lie
Boot
Ġtremb
ĠKL
Ġalleging
Ġcandidate
anged
ĠTrying
():
eeks
main
Ġelic
Ġsummed
!".
Ġlisted
WB
Ġ293
Ġblocked
ñ
Ġaforementioned
orsi
`
Ġrevocation
Ġstart
Ġproves
ctrl
rah
Ġrepairing
ĠSadly
Ġcease
Tor
Ġdelighted
orians
Ġdependency
isites
Ġfoes
Ġfixes
ĠLarson
46
addock
830
ĠConstitution
Ġchalleng
Ġinteresting
ĠFemales
ĠSTA
~~~~
ĠRacer
Ġimplementations
kai
Ġintended
ĠUSE
sized
amount
Ġhoax
avers
+(
Ġallocated
Ġtemperatures
Ġrelativity
Ġkillings
Burn
Ġrenew
Ġbisexual
ĠNP
ĠTen
Ġtrimmed
745
olphin
Ġfolders
Ġunwittingly
Ġlonging
severe
Free
ĠArmenian
Ġcoli
Ġdisturbances
di
recomm
Ġmosquitoes
Ġshows
ĠFirefox
Ġloss
Mail
Ġlinger
Ġintervention
DOS
ĠExtend
Ġplentiful
Connect
ĠPOL
ĠMarsh
ĠDL
Ġsettlement
53
Area
ĠHumans
md
787
mins
47
ĠPLUS
ĠAlf
ĠDraper
ĠBuck
ĠXiang
Ġsne
ĠEnt
Ġexpires
ĠMJ
Ġexorc
ĠOccupations
Ġworship
ĠNap
Ġhurricane
Ġsushi
opol
Ġclick
race
stanbul
Ġstraw
Ġgunned
Ġx
ĠMake
Ġimplications
izen
ĠSemin
translation
Ġfloor
rx
Ġcast
etsu
).
Ġunchanged
ryn
Ġnipple
ĠCork
Ġaggregation
ousel
oters
Ġsediment
Ġproductions
ĠOrt
azo
Ġbulldo
Ġfed
ĠRecall
stack
Ġscalable
ISON
Ġtracing
Ġcab
Ġscent
ĠHemp
fen
153
ĠSkull
Ġcontag
Brazilian
Ġliquid
Ġnevertheless
LLOW
amins
ĠAnnex
Ġcomplains
rolet
ĠEngineers
cake
120
ĠAmeric
Ball
Ġinitiated
ĠFAT
Ġsheets
ĠFarrell
ĠWords
repair
Ġtoxin
Ġblog
ĠWHERE
ĠNev
-,
){
Ġirrelevant
Ġnominate
Ġclassification
Ġgamers
800
ushed
ĠFrankenstein
Ġlessons
Ġcoordin
ke
ĠJazeera
Ġâĸł
ĠGrimm
classes
uploaded
Ġallerg
Ġapp
ractive
Just
CT
could
268
packed
Ġunlock
Ġexempted
Ġhum
Ġtownship
ĠGuantanamo
Ġpile
Ġcinem
Ġmar
itution
ĠKlein
617
Ġslogans
Ġpropaganda
ĠTransportation
Ġinvestment
oxy
steamapps
Ġtrends
Ġeventual
Ġauthorize
ominium
Ġ%
ĠSix
ĠBihar
Ġarist
Ġbattered
Ġmarked
energy
Ġsailor
osaurs
Review
license
Ġbogus
Government
Ġarrange
hea
www
Ġansw
Ġrooted
levard
ĠPhilippe
Ġhundred
Ġdirectives
south
Ġparticularly
ACE
Ġmate
ĠMour
Ġunintended
ĠSwiss
ĠStudents
Ġinfluence
Ġnarrower
rest
ĠHaste
.
Ġmonetary
Ġsaddle
Ġcomputational
Ġpinned
ĠGoth
Ġtitled
ĠScourge
ĠWah
ĠGreenwald
ĠAure
Ġoriginated
Thursday
Because
Ġconfession
Ġrobotics
Ġstagn
105
like
ĠEither
ĠIndustry
Ġproblems
foot
neum
Ġerrors
ĠRamsay
These
index
ĠJennifer
Ġphilosophers
Ġmortgages
gart
ĠDiego
Ġinstrument
Ġmarvelous
Ġelectrode
ĠEstate
Ġanarchy
ĠVeh
toc
ĠParenthood
635
ĠRamos
Ġpat
ĠDrugs
Ġpristine
Ġlandowners
âĢĶâĢĶâĢĶâĢĶâĢĶâĢĶâĢĶâĢĶ
Ġassumed
adobe
poons
embedreportprint
ĠHandle
ĠSh
ophile
INTER
HE
Ġnep
Ver
Ġattain
bill
culture
ħĭ
ĠLaurent
Ġupdate
tered
Ġfond
ilda
Ġfermented
Ġres
Ġnurs
oshi
Ġrumors
Ġbodies
ĠOpen
Ġsexual
ĠAsians
ķ
Ġunderwent
Ġdevs
knife
Ġcomplicated
Ġintegral
Ġenglish
poon
end
ĠLeviathan
Ġsurges
ìĿ
Fre
GG
Ġredeemed
skinned
Ġhappy
Ġ525
Ġcontribut
ĠAFTER
Ġspac
Store
ĠIdentification
Ġsubscribe
ĠHole
ĠPrometheus
th
Ġsofa
ĠLeg
Ġdebut
":"","
RT
ĠLilly
ĠPanzer
ĠCalifornia
Ġrookie
Ġhumanoid
Ġforfeit
Ġreluctantly
Ġstriker
Ġinexpl
Ġactive
eat
ĠShad
ammu
Ġpel
ĠSpear
âĸĪâĸĪ
ģ«
Ġpotent
stasy
ierra
ĠLaure
Ġpond
Samsung
RG
lund
ĠModes
ĠEnabled
Ġcompiling
íķ
Ġenvironments
Ġautonomous
Ġshipping
esty
ĠMeasure
ĠTransgender
ĠSens
Ġscreenings
Ġundis
mys
TA
arson
ĠLuckily
pict
Ġbroadcasting
Ġdiscrim
inational
ĠHawking
Ġseek
ethe
Ġhull
Ġgas
ĠMG
onet
endon
adam
leases
Ġ168
ĠSutherland
cox
Ġcontext
quel
ĠFifa
Ġcra
tle
Description
ittee
ĠMbps
Average
Ġspine
ĠBowser
ĠDestination
ĠCrossing
og
KNOWN
boat
Ġmaritime
ĠPotential
ĠExposure
ually
Ġrelation
Ġtwist
Ġbilling
abuse
ĠPlenty
Ġtap
ĠReflect
get
Ġforcing
Ġversus
autions
Ġpossessed
ĠJacobs
Ġsubmitted
ĠEssentially
gil
Ġexposition
ĠRiver
ĠSad
ĠJUST
ienced
ĠChampion
ĠRAND
Ġ228
stic
sie
ĠCrime
introdu
ãģ®éŃĶ
ĠART
Ġcity
inf
Ġexpense
Tier
ĠTypical
384
itional
ĠAlien
Ġdisparities
ĠJackets
isSpecialOrderable
cooked
ĠGrim
Ġsavvy
ĠRoll
commercial
Ġplank
icult
Ġoversee
Ġkh
phase
ĠBhar
MK
ĠAngelo
ĠDomin
dot
485
ĠIt
Ġhypert
ĠADV
Ġpiety
Economic
Ġnodes
abe
Ġimagining
ĠStanton
Car
Ġhaunting
Ġfifty
Ġwheelchair
ĠEarl
malink
uture
Ġ<[
ĠCher
ĠPublishers
ĠTehran
Ġshouting
Ġretro
ĠGNOME
784
Kar
Mer
Ġconditional
ĠSasha
)+
ĠTower
Ġfreely
ĠFinger
ĠAmin
Ġcolonel
aria
ĠMight
fresh
ration
cled
atisf
ĠHuffington
ĠExtended
itance
ĠInside
Ġinstitutional
Body
Ġgritty
Ġgovernment
ĠHud
Ġbr
ĠSikh
Ġbetter
Ġpsychopath
etchup
ĠProducts
ĠGillespie
iator
Ġcompany
ĠChosen
Ġ60
ĠFig
Ġwrist
Ġleve
wear
,"
ĠTan
ĠNum
ĠJinping
ĠDecember
Suggest
ĠVeg
IP
ĠCheck
ESPN
latable
ĠFilm
Ġshampoo
ĠPC
downs
transboy
cloud
ĠTHEM
Ġapplies
ĠGaming
Additional
Ġgameplay
Ġhollow
DJ
ĠTest
Ġattended
Ġgranddaughter
ĠDocker
1997
neapolis
ĠToby
ĠCONT
ĠðŁĻĤ
ĠWinner
Ġdisgu
Ġpicked
Ġbroad
Ė
Ġpre
Ġalliances
court
Ġresurg
ĠHa
adeon
Ġgau
Ġcandy
reporting
ĠHappy
Ġ"...
Ġtempted
ĠMagnetic
ĠSora
pure
Ġvisual
wan
Until
Ġstink
Ġraging
Ġoffense
ĠRegion
Ġcalc
ilyn
Ġbullet
Ġinterceptions
res
014
Ġ165
Ne
Ã©t
ĠNE
Ġatrocities
ihar
Ġdocks
select
Ġincur
lights
hammad
erella
Ġthroughout
gypt
ĠBeh
istine
Ġpacket
ulator
SL
Ġmicrobiota
Ġloc
mental
Ġimpact
gi
itched
ĠAlph
itton
VS
Ġ445
olls
Ġhimself
ĠArchives
Fil
olina
Ġship
ahu
Exp
Ġblight
Ġsensations
ĠFren
ĠGaddafi
ample
Ġcopper
Ġextension
ĠREG
ĠTreasury
erry
ĠChester
Ġimaginative
èĥ
246
Ġacknowledgement
ĠSaul
arist
Ġ74
FI
ventus
Ġbug
ĠRegistration
ĠConspiracy
uese
Ġrituals
Ġmystic
ĠJohnson
Ġoverview
Ġrealizes
Ġgriev
Ġtha
Dialogue
Karl
as
ĠAppalach
Sup
Ġcasually
Were
render
ĠFaul
Ġgorge
Ġknots
ĠSv
Ġstumbled
ĠAntar
Ġconcussion
oodoo
Prom
acked
Tang
ĠZhu
oret
Ġpreferred
165
ĠEv
Ġpupils
Ġeaves
aepernick
Ġsap
ĠWave
Ġresidence
umers
ĠScrib
Ġimpressed
Reply
Ġhide
ĠProcessing
ĠHad
Rand
arbon
ĠMIT
Ġboring
ĠThiel
United Kingdom
Ġschematic
Ġintangible
Ġlawmaker
Ġbought
Ġhref
Ġbuses
ĠAxe
Ġbackground
Ġbrain
ependent
ĠNasa
REE
ĠInvestors
Ġinherit
['
272
he
676
Ġrim
ary
close
ĠState
/_
ĠSuarez
alian
Ġ747
Ġcuisine
Ġyoga
Ġdepressed
Ġeliminates
Medical
Ġattitude
Ġkicker
Ġenormous
ĠCab
ergy
Ġprosecuting
Ġcompetitor
ĠSeasons
1989
Ġtaco
Ġfixing
ĠPants
Conservative
ĠOkinawa
Ġbriefing
ĠAdmiral
jay
689
Ġhurled
iece
'),
jong
Iss
Ġincorrectly
riot
ĠBans
Google
ĠELECT
Ġmuc
VID
Ġconven
rad
uably
Ġbiomedical
ĠBok
Ġjson
ĠExpedition
micro
pg
Ġsentenced
ė
000000
Ġexplaining
onut
Ġpermanent
Ġpuff
Ak
owing
ourced
Ġslander
ä¸
ĠWeeks
ĠLam
Ġcomplain
Ġ277
Ġinmate
ĠLay
omination
ĠTrials
ĠOmn
Ġengineered
auldron
Ġdevised
legates
Ġaside
Ġpasses
Ġconsider
Ġchecking
Ġvicious
they
ĠONLY
angible
Ġgive
Life
Core
Ġ176
Ġex
ĠJer
aut
ld
Ġfashionable
ĠLancaster
Grad
putable
Ġviewing
Ġrecession
ĠRoosevelt
ĠCannon
ãĥīãĥ©
Ġtorrent
Ġcomplained
ĠMuse
Ġmiscar
Ġquirky
ast
Ġtwisting
ĠRoss
Ġorthodox
ĠPCIe
Ġunnecessary
Ġtrumpet
ery
ulated
Ġfac
ĠDiscount
ĠShepard
Ġflash
Ġcapitalist
ĠBeetle
Indeed
oland
athered
Ġumbrella
ĠCheong
ritic
Ġ39
Ġpill
ĠMulti
Ġslot
Ġbeer
wouldn't
ameron
ĠLIVE
Ġtread
Ġmountains
Ġillness
Ġcommitted
Ġthings
Ġbless
ĠPhysicians
odka
ĠClear
Ġduring
Ġpg
ological
Ġpushing
leader
owder
Ġsyntax
ĠEco
wx
ĠUNITED
Ġhappened
ĠICE
Ġexplicitly
Ġpops
Ġost
CONCLUS
ĠNurs
ĠFIFA
Ġtitanium
ĠSaturn
According
Desk
arling
332
Ġfragile
opher
Ġscandal
ierce
Ġwarped
Ġvisuals
Ġsneaky
say
umbles
Ġresolves
ĠUncle
inement
Ġhottest
Ġ950
ĠCompanies
Ġpainstaking
Ġ820
Ġmatter
hid
Ġskipped
anova
performance
ĠSDL
Ġfranchises
Ġunthinkable
Ġunidentified
Would
Ġapproximate
ĠHavana
ĠSanta
almost
ĠMetatron
Animal
Ġfolder
..."
Ġpunishment
Ġ225
ĠGreenwood
Ġinstalled
women
phone
Ġmandates
)=(
ĠRevelation
HM
Ġconsume
Ġriver
Score
Ġmetallic
iano
Bus
Ġstatic
ocaly
bral
mad
click
foreign
ĠAny
ility
Ġenemy
Ġpromotion
Recommend
ĠEssex
Ġnascent
ĠFormer
è¦ļéĨĴ
Ġproud
Ġwarn
ilic
Ġpartisans
Wing
Ġmodules
ĠValerie
Cong
fl
ĠBryan
Ġimmediately
igi
ĠNear
orient
Ġoils
ĠPDF
Ġdeal
ĠMalcolm
ĠIslanders
Ġperpetual
ĠCN
ĠHor
ĠIncome
Ġexception
ĠCherry
Ġdwar
ãĤī
Ġpaused
Below
Playing
chance
Beginning
Ġrestaur
ivering
ashi
Ġchess
Ġmutually
zon
farious
Ġcorrelated
Ġcent
tsky
disc
Ġstealing
Ġassociate
Ġenvironmentally
ĠJihad
ĠPolic
ĠStars
ĠObservatory
ĠThomson
exempt
ĠColbert
Ġmeaningless
Ġth
Ġmiddle
artments
OPE
Ġirritating
Ġfamously
ĠLumpur
UCK
ĠMakes
ĠWat
bane
uffer
ĠPal
aston
ĠNext
Ġfiscal
ĠDodge
fall
TEXT
Ġonward
Ġsanctioned
adata
ĠSirius
mA
ĠIndex
estate
Ġtake
rief
ĠEpidem
````
ĠJesus
Ġmischief
Ġdracon
Ġspecialize
Ġdensity
Ġcontraception
Ġthinkers
Ġtaxed
Ġresurrected
clude
outh
ĠEat
ĠPsycho
leanor
Ġtopped
ĠButter
each
Ġcoherent
follow
JM
Ġwatch
Ġlaunches
ibu
Ġsenses
ĠNJ
ĠTOD
ĠRI
éĢ
Domin
ĠMrs
NP
Ġcategorized
olulu
Apple
also
ĠIsrael
Ġcaus
ĠTutorial
Ġprevious
period
IAN
ĠVest
1975
Ġprodu
ĠTw
ĠRecent
ĠPhysics
Ġbarring
Ġsurv
Ġtie
lette
Ġsale
Ġravaged
mopolitan
Ġclerics
GR
Ġcatast
Ġhelicop
Ġweaknesses
Ġ428
vich
Ġopposition
Ġforbidden
Ġbypass
ĠCalled
sc
Ġpsychologically
Ġdope
aint
Ġtube
Ġconflicting
Ġnine
Ġbrun
Ġotherwise
ĠAppears
ffff
Ġreinforce
Ġaut
Ġener
Ġfri
Ġillusion
ĠJuda
ĠSut
porary
ĠFreddie
Ġcurrently
Pand
Ġsurg
ĠNed
Ġmouse
Ġwrite
ĠQuincy
fits
ween
ANN
ĠEtsy
ĠSummary
ĠYellowstone
Ġinjured
Ġnoses
Inside
Ġbeginner
Ġecstatic
onom
Ġprogrammer
SPEC
Ġnegotiator
lan
Ġ"@
Ġdistinct
Ġoff
dding
uler
Ġ698
ĠPetr
Ext
åħī
Ġweeks
Ġ80
Ġdevoted
ĠMID
hibited
Ġfonts
AV
Ġplung
Ġgetting
.?
Speed
Ġbankruptcy
Ġbraces
ĠProbe
Ġstand
Ġafterlife
ĠSubtle
ĠFang
Ġhaven
Ġpunt
kie
Ġsources
Ġ355
ĠInspect
Ġheirs
Ġinvoked
Bang
Ġclaimants
ĠWD
Ġrightfully
lee
God
Ġbanquet
Ġflight
OME
ĠChampionships
utton
ĠSN
Ġcrises
Ġdevastation
Ġblob
Ġwillful
ĠSharing
according
ĠComfort
Ġabstinence
Ġcheckpoint
Ġtranslating
ading
Ġinvitation
ĠThan
Sim
Ġmanifest
Ġexplained
Ġrebirth
ĠStarted
sych
Ġrendered
Ġstaggered
processing
ĠConf
ĠStarts
Ġpledge
ulus
Ġanonymously
urally
ĠIsraelis
ĠAllied
izzy
ressing
ĠBust
did
Ġ[
arium
Ġwhole
ĠAgg
ulton
inth
Ġrealised
ĠRew
Ġindication
Ġborrowing
Ġattachment
Ġintercepted
ĠMario
ĠAfrican
ouston
ĠCC
ĠBrew
Ġstanding
Ġsimulation
ĠSkills
monton
ĠMLS
Ġcompliant
RM
Ġbelievers
ĠAlbany
brace
Dust
Ġproposes
ĠPoor
ĠXV
Ġdeserve
Ġskew
Ġunlikely
ler
bed
EH
Ġwonders
MIT
Ġenchantment
Wheel
Ġrabbits
agus
Ġcorrosion
ĠNathaniel
Line
Ġarticles
Ġpistols
Ġpneumonia
LGBT
ĠGeneration
Ġflyer
ĠALSO
ĠEnix
Ġhast
ĠAcad
Ġinquired
enting
ially
Ġwarmed
ĠSQU
Ġdebugger
Ġpersistent
Series
Ġwithholding
Assistant
âĸĢ
ĠCy
fruit
Ġpotentially
Ġfeed
ructure
ĠConsortium
cam
Ġproced
ĠDeaths
ĠFinn
Ġrockets
Ġ1933
ĠPUBLIC
urized
ĠHaley
ĠBass
Bur
Ġglimpse
Agg
Ġdisc
ĠMGM
ĠCitizens
Ġholdings
Ġlargely
giene
NOT
Ġcollect
ĠEnterprise
assisted
Ġoverwhelmed
pract
Ġribbon
Ġref
Ġagitated
798
Ġacqu
Ġsuperheroes
Ġmobilized
Ġunemploy
ampire
Ġvolley
Ġaccompanies
ĠAlabama
Ġgalactic
ions
ĠHollow
ĠCho
Ġseats
Ġassisting
Ġmanners
ĠYad
meaning
gravity
ĠSlater
ĠModest
Ġcis
Ġrhetorical
Ġnumer
ĠXia
Only
Ġlawmakers
Ġregistered
Ġcentrif
ĠFY
Ġemployee
Î³
Ġlou
tha
ĠBAD
Ġincrim
Ġtentative
acid
Ġwitch
ney
ĠLima
Ġ[(
ĠVera
Ġoverloaded
sson
enzie
Ġshave
API
Ġsurname
max
Ġwielding
Ġconceal
Ġletter
Ġcrumbling
Ġpreventive
Mod
flex
Ġdisruptions
Ġmailing
432
Registration
letter
rones
Ħ¢
Ġrhyth
Ġcaps
Ġefficacy
ograms
rake
ĠZeit
Ġadvis
Ġtechnological
Ġnegatives
ĠLoud
Ġ..."
Ġchaired
Medic
ĠRaces
ĠAlex
Ġrisked
Anonymous
ĠMales
ĠLower
Ġcovert
core
Ġmultic
ĠDust
ĠARM
Orig
azaki
Ġwildly
ĠFANTASY
ĠNexus
afia
ĠMisty
ĠKer
ĠUI
ĠOk
ĠWinc
ĠCisco
Ġobjectively
ĠDebate
ogie
ĠAcqu
ĠVoters
Ġbroth
rip
ĠMcCorm
Ġprivately
BC
client
rupal
Ġcausing
cel
Ġnumbering
imens
ĠCooper
icking
è¡
eria
Ġimpover
ĠRW
Ġexpression
Ġsafeguard
Ġdispensaries
Ġhypothesis
beck
Ġslim
icans
Ġrigid
ÂłÂłÂł
Ġclut
osity
Ġcanvas
ĠSandra
report
Ġbark
Ġ];
ĠRE
ifa
oft
045
ĠPromotion
Ġundeniably
2013
Ġhitch
ĠConstantinople
ĠChern
ĠVision
Ġfrown
Ġanyone
ĠNAS
Ġlone
Ġiceberg
Phill
ĠGuth
Ġpositioned
igun
Ġresultant
Ġmachinery
ĠVoy
èĢħ
ĠRemain
Ġhttps
akespe
Ġwarmer
ĠNM
Ġexpedition
ĠTEST
missive
ĠVag
Ġfaction
ĠStronghold
aci
RAM
::::::::
ĠThorn
ras
Ġoccurred
vious
Ġreporters
Ġcontamin
Ġairs
Ġdorm
355
ĠSind
Ġposed
Ġenforced
Sys
OOOO
Ġinefficient
Ġaddresses
Ġfortun
Ġsplits
777
Ġculture
Ġcycl
Ġtripled
Ġswimming
Ġmug
Ġguilty
ces
Ġheinous
Ġnutritional
alla
Ġreminded
ologies
ĠUkrainian
519
Ġoverr
Impl
banks
Ġmastered
=""
Ġaccount
Ġcanon
watching
Player
Ġpredecessors
ĠEvan
Ġemails
805
anyl
We
ĠAdminist
ĠEQ
Shell
ĠDiablo
ĠLEGO
Ġcolonial
Flag
Ġthresholds
aturally
Ġantibody
Ġhatred
Ġsexuality
ĠPaint
Ġft
nar
Mas
ANY
akery
ĠChief
Ġmanufactured
Ġinstincts
Ġpreserves
Tyler
Ġpredict
ĠDefinitely
ĠDing
ĠAlison
Ġdetection
Ġammon
ĠTreasure
ĠBone
ĠEditorial
Ġpathway
Ġreaders
ella
NER
category
Ġnature
Ġdir
ĠDivine
ĠQuote
Beck
Ġ8
Ġ400
Ġshameful
Ġproficiency
andem
Ġrevelation
ĠFu
anked
ĠWatts
away
ĠPie
Ġsummons
ovsky
Ġfrost
ĠMikhail
ĠRoche
ĠHardcore
ricanes
Ġsing
ĠBrookings
Ġed
ĠMyster
ĠBoyle
Ġ361
Â¯Â¯Â¯Â¯
ĠProsecutor
Ġtossing
ĠðŁ
Ġbattlefield
Ġbelonging
05
Ġamen
Ġuproar
Ġfolk
ĠEasy
Ġambul
shared
ĠMazda
ĠPhotograph
Ġoccurrences
683
Ġincom
ĠProof
ãĤĴ
Ġaz
Ġpermitting
ĠWar
Ġenz
Ġwhispers
ĠYep
ĠZan
ĠMormonism
Ġdwellings
estation
Ġdispose
ĠVeil
Ġsupra
ĠReed
Ġparalysis
Ġcoercive
Ġjuices
Ġinfuri
aris
ĠBannon
ĠHemisphere
Ġintoxication
escent
Ġfrustration
Ġassembling
Ġinteg
Ġthousand
Ġsuspension
Ġta
ĠBrands
Ġcontextual
Ġcombinations
Ġnomination
ĠPaste
Ġbackwards
ĠCame
OPLE
Ġgraphic
yeah
Ġdean
Ġhelped
Ġheadquarters
ĠAra
Ġdiscreet
Ġming
Ġdry
Ġruled
ĠMean
igraph
Ġpregnancies
distance
Ġswe
VW
ĠMoran
erala
ĠMov
ĠSand
Ġdiscontinued
Ġredemption
ĠOECD
Ġpistol
Ġchang
@#&
Ġconquering
Ġfunnel
ãģ£
ulative
pipe
ĠTot
94
ategories
ĠG
Ġhistory
ĠStamina
nuclear
arding
Ġpredominant
ĠSource
Ġintestine
ĠRevenge
Judge
matched
41
alty
ĠMiller
ĠJPMorgan
Ġbeautiful
Matt
ĠBusiness
ĠCompos
osphere
ĠFacebook
Ġwretched
Ġideas
list
Ġsong
avan
ĠBre
ĠShirt
chie
ĠTopic
intestinal
Ġintrusive
Ġbackward
spin
Ġbulk
cribed
ĠTok
ĠYoutube
ĠTheme
ĠKrugman
Compl
Maria
ONES
quart
ĠTrevor
wer
Either
clinical
Ġot
Ġtalks
ĠDean
inky
Ġhistor
Ġimporting
Ġbowed
ĠWalmart
want
azeera
mic
Ġcharges
ĠKind
ucking
azard
ritz
Ġdisl
Ġhomage
ostics
Ġlegislator
ĠGus
abeth
iculty
Platform
ĠMeng
620
ĠDietary
000
çļ
rompt
Ġchemicals
Ġteaches
Ġrece
Ġgrasp
oooo
Ġ[[
ĠLR
ĠEffective
an
Ġpathways
ped
Ġpassages
ĠSioux
aily
Ġripped
Ġ262
ĠForms
Ġgoofy
Ġpoets
Ġ"'
Ġinstalls
Ġfumes
Ġplagued
ished
ĠLens
Ġempt
Support
Ġscholars
Ġconjunction
Ġtrolling
Ġcoordinate
Ġfounders
ĠSuff
Ġportfolio
Ġfaked
arij
rely
Ġaccustomed
ĠOVER
Ġpromul
ĠSolo
Ġrigged
ointed
Added
Ġglanced
ĠRd
Ġ164
Xbox
ĠZig
argon
Ġvortex
Ġstaffing
regor
redd
Ġspecializing
Ġloop
rium
nee
ipple
ĠAnthropology
Catal
Ġlaughed
ĠAMD
ĠPlague
ĠGale
racist
Ġpolitician
tf
ĠHurricanes
Ġbillboards
elson
Ġmissile
ples
ĠGovernment
Ġempowered
Ġatmosphere
ĠMonica
Ġmethods
Ġdenial
Ġinstability
Ġfrantic
ĠColomb
608
Ġarming
Ġbuttocks
Ġsacks
Row
widget
Ġborne
Ġcontribute
VIDEO
Ġflavours
Ġwalls
arrison
ĠIv
ĠRage
Ġrefined
795
Ġsnipp
Ġblazing
Season
ock
EU
Ġwelcome
Ġhints
ĠCAS
ĠGET
sequently
service
Ġassuming
ĠRamp
Ġunm
ographed
Santa
ambling
Ġ1500
Ġsupposedly
Ġpresident
Ġexcerpts
ĠCrunch
ĠRemy
Ġ417
341
ĠMadame
ĠJacqu
Ġasync
prom
Wik
ĠEdinburgh
roth
Something
ĠmM
Ġrotor
ĠEVEN
Ġarchae
ĠGohan
Obama
Ġancestor
Ġminus
adj
igion
Ġprocessors
Ġtariffs
DER
ĠAdv
ĠIzan
cler
Ġparallels
793
Coll
Ġstadiums
Alabama
Ġlandscapes
ĠVox
Ġsmokes
Ġaffected
Ġunhealthy
serial
bub
Ġexcuse
ĠFerguson
hedral
Ġbalanced
Ġwildfires
ategor
comics
Ġundergo
ĠGhostbusters
Ġdoctr
Ġsw
Ġoblivious
Ġspor
ĠUttar
ĠVortex
ikan
ĠNAME
founder
ĠRecommended
Ġexploitation
Ġreverence
};
ĠLincoln
Ġmanif
Wait
ĠÎ¼
Ġpaste
lich
ĠRae
ĠBeijing
ĠAPPLIC
Ġdeputy
Ġsuicides
entity
Ġblames
ĠIntro
Pro
cod
many
ĠMobil
hyd
ĠWiFi
shit
ĠMuss
apache
inches
Ġslime
taining
ickr
aques
ydia
ĠMaurice
ĠAren
303
Ġ404
ĠNice
Ġcombined
Ġstimulating
Ġnaked
Ġcodes
pects
IELD
Ġtribal
Ġcens
Ġgarrison
ĠSchwartz
Ġimprove
thereum
Ġunusual
ĠTracker
UE
Ġprope
"},
NB
CL
Ġlax
Ġepis
Ġagainst
Ont
043
Ġbookstore
Ġ128
Ġjs
Jump
408
gur
Ġguard
adjusted
ĠRoberts
ĠChris
Ġcows
ĠBreath
born
aleigh
JA
Ġdocument
ĠChurchill
ĠPrint
largest
Ġcone
Supplement
ottest
1994
Ġrejuven
squ
Ġpremiums
Ġantioxidant
ĠCategories
Ġkingdom
ĠCarry
ĠGomez
ĠHorses
Ġnavy
ĠISS
Bi
Ġquantum
ĠPersons
Ġremembering
eni
ĠCorona
ĠSaur
Ġemulation
ĠSTUD
ĠAndreas
ĠLumin
inations
ĠRose
Ġcompliance
protection
ĠAdvent
UAL
Ġslips
organic
Ġvalleys
Ġderivative
ĠRandom
ĠSheridan
Ġcalibr
Ġimpress
ixty
bsite
ĠGiving
ĠAPI
ĠGot
Ġcomprise
Ġspoil
uz
Ġoxid
Ġmolten
otto
ĠCook
ĠFairy
Ġboobs
ISTORY
Ġflavored
ĠFarms
ĠSmall
Ġblitz
Ġpledging
Ġquot
Reddit
ĠGermans
eredith
428
Ġassay
Ġrecourse
AT
Ġmachine
ĠHan
ĠDaytona
Ġlot
fiction
Ġfine
Ġathlet
ĠJudging
Ġkick
ĠTitle
cost
der
Ġwaive
Ġasses
ĠNos
ĠMarines
Ġleak
ĠLex
ĠFranch
Render
izont
Louis
Ġforfeiture
Ġhobbies
METHOD
eteria
Ġindisc
Ġglitch
Ġclassy
vier
Ġdiscount
Ġradical
Ġlear
olas
581
Ġbeyond
ĠHOL
Ġprogrammes
bars
ĠIntroduced
cially
ĠDenise
Ġwast
Ġuptick
ĠUCH
tain
Ġstimulate
Ġpier
Ġacknowled
ĠZuckerberg
ĠMiko
ĠMini
params
ĠChips
ĠFriday
Officers
Ġprotracted
pecially
ĠBlitz
Berry
isitions
Norm
Ġreasons
Ġlett
Construction
ĠDriving
Ġpard
ĠYoung
ĠPension
77
Ġlittle
ĠGrimoire
Ġware
ĠLW
Simple
Ġupscale
Ġaide
Ġbluff
Ġadjustments
agogue
Ġhacking
Ġver
Ġbins
ĠFiction
ĠHead
Ġregulating
Ġunarmed
ĠBert
ĠIraqi
ĠCBI
gest
Ġinsect
licted
Ġwhisk
ĠPoker
ĠEmergency
Ġdoubted
ĠNeb
Ġendeavour
responsive
Fighting
Ġbent
__
028
ĠSept
ĠLifetime
ĠDayton
Ġcout
ĠRece
javascript
phy
ussed
ĠClifford
ĠProperties
Ġet
Ġpipe
Ġaiming
ĠAmendments
ĠNIH
ĠLesbian
ĠGordon
Ġchant
ĠLana
obos
Ġresur
rounder
Ġobserving
ĠGrove
Ġprobation
Ġlogistics
Ġdid
Ġverdict
Energy
ĠPres
Ġdepreciation
Ġtaxation
btn
ĠSwedish
748
Ġren
jab
ĠPLAY
ĠRuff
Ġtweeted
Ġ20
Ġpeak
Ġlooks
789
ĠRocket
Rich
Ġdining
ederation
ĠRatio
ĠTests
Ġtier
ĠClinic
project
ĠApplic
ĠRan
ĠIniti
ĠElise
Ġgastrointestinal
ĠNEWS
Ġdozen
Ġdrinkers
ĠNey
Ġfailed
413
Ġbloody
Ġgraduating
ĠAdmission
Ġwavelength
Ġacquiring
Ġkills
Ġplace
open
EO
ANA
Ġmans
ĠSchultz
ĠVery
AND
Ġacademic
').
approved
Ġbad
Ġcafeteria
Ġspe
al
ĠMock
ĠFreeBSD
Ġtrailing
ulent
ĠBinary
ĠInterestingly
Ġskull
Ġacc
Ġships
tin
Ġraged
Ġquestionable
pol
Ġchim
Ġwatched
630
enhagen
ĠLug
erno
tw
Ġirrad
Ġpauses
aper
Ġhost
Ġprote
ĠMÃ©
ĠRPM
ĠKaine
DIV
Ġ344
Ġredes
Ġseem
irement
utive
Ġwhe
mobile
Mos
ober
ĠWings
Ġwise
Ġgroundwater
hound
ĠTup
ĠBy
Ġvaries
Ġvaginal
Ġtyped
Ġvery
ĠMaggie
rave
ĠVG
ÃĹ
Ġeconomies
ĠâĶ
ernandez
ĠCoh
Ġhighlighted
Ġavoids
Ġdrib
Ġ85
Mix
Ġrecognizes
Ġcorridors
anca
ĠTraff
Ġintellectually
AGE
ays
Ġexternal
Ġclash
Ġchances
Ġdetective
mony
Ġmenstru
Ġmasturbation
Ġfloat
Ġmoderates
Ġæľ
aced
ĠMew
ĠTens
Ġinterpretations
Ġ1920
Ġatmospheric
Ġredevelopment
ForgeModLoader
INGS
Ġmunicipality
rogram
inkle
Ġcivilisation
ĠNAV
ĠTil
vi
Ġlocal
ĠKu
Israel
Ġdrank
ION
Three
ĠTuesday
Sa
ġ
Ġaverage
ĠTomb
phal
Ġprobability
ĠNa
iling
Ġquake
Ġpoorly
Ġrefriger
ãĤ³
iera
Ġdeath
Ġneatly
lake
Ġcomplainant
ĠEp
ĠPharaoh
ĠHuang
Ġmartial
upid
Ġpursuing
Neill
tek
Ġoxidative
slow
Ġmurders
ĠChrysler
Rh
Lat
02
ĠGST
ĠGuardians
Ġprecision
Ġtons
Ġproclaiming
ĠBrunswick
Ġdictated
Ġendured
ifax
warming
ertodd
raining
aith
ĠMEP
Ġpurpose
ĠMill
ĠDNC
ĠYOUR
Ġguns
ĠMae
educ
ĠArkansas
Ġalongside
ĠSpeedway
orrow
Ġunresolved
Ġpredictably
North
Ġcomrade
apses
Ġundue
Ġoccasionally
Student
Ġinformant
Ġsynth
Ġ38
ĠMonth
Ġbould
ĠPl
Ġplanet
Ġdissidents
BB
Ġmicroscopic
Ġengineer
ĠABV
Ġbacteria
ĠColon
Ġinitialization
NING
ggie
recated
Ġdiscrepancies
ĠSimply
conf
Ġtenth
Ġadequate
ren
ĠCatalog
Ġfaiths
angle
Ġhateful
Ġcolleague
ĠMinecraft
Ġsober
ĠBerger
Ġexpended
ĠTEXT
Cass
usive
Ġregistrations
ĠRule
Ġempath
ĠMED
ĠHERE
Ġfunctionally
Ġswaps
IES
Ġbroccoli
Ġwob
ĠStra
âĶĢâĶĢâĶĢâĶĢ
Ġquar
Ġairing
Ġsitcom
ĠVid
Ġboys
Ġlogin
230
ĠKiller
Ġdj
Ġalmonds
ĠParticipants
ĠLions
ĠKelley
Laughs
Ġdisbanded
ĠSamson
ĠApollo
rooms
288
ĠPunch
buf
speak
Ġpresence
Statement
ooks
Washington
ĠRoller
rem
ĠForest
ĠWine
ĠBuc
peria
ĠHMS
ĠRoads
ĠANN
Ġpolicies
ĠKok
Allow
Ġfishing
changing
Brad
ĠSerie
criminal
ĠGodd
ĠNGO
TPS
Ġdonors
Ġcryst
verting
Ben
Ġneglect
Ġsustain
Ġinfrastructure
Ġtenant
Ġaggravated
?'"
ĠiT
wyn
Ġfavour
ĠPositive
Ġclose
centered
Ġ310
graduate
Ġshowing
grown
obbies
Ġany
gt
prop
ĠTHIS
Ġfascist
175
iously
antine
orb
Ġdeteriorating
Ġ1800
2006
Ġupkeep
ixed
mp
Map
omp
Ġresiding
concept
icient
ĠRay
Ġratio
Ġbureaucr
Adventure
abb
Ġseaw
ĠAustral
Ġcrates
venth
Ġbegg
uning
ository
waukee
Ġfreshly
ĠWeak
248
Ġinfo
EST
Ġtonnes
Ġfeatured
Ġdistractions
Ġsix
optim
ĠCannes
Ġlibraries
laim
oux
ĠSprite
Ġfumble
ĠJensen
Ġsynchronization
ĠStun
ULAR
bial
ItemTracker
ĠCommunity
Ġvo
ĠAB
ĠTwilight
Ġinward
ĠDestroy
Py
1972
Ġwealth
ãģ®ç
é»Ĵ
Days
asp
Ġdiver
ĠBangalore
Ġposit
ass
ĠEG
Ġalgorithm
Ġhype
sided
é¾įå¥ĳå£«
Ġnursery
ĠBlessing
plom
ā
erving
HP
ĠPayton
Ġdemonstrated
Ġvarieties
Ġcauses
rov
ril
FactoryReloaded
Ġpreacher
Ġfounded
ĠImp
Wire
Ġcramped
Ġleaves
Ġrole
ulators
Ġartistic
||
Ġassortment
ĠGoose
Ġfant
Ġtumult
ĠUPS
Ġtagging
Ġlamps
Ġdrifting
Ġsolved
Ġcovered
ĠPeoples
ascal
ĠMILL
ĠMal
Ġoh
ffe
Ġabhor
ĠFinnish
aminer
ĠKings
ĠCheap
na
Ġhaze
termination
à¤
famous
Ġmph
Ġimag
Ġuniforms
Ġarithmetic
Ġpopul
Ġworkshop
Ġsizeable
ĠGuant
rows
Ġveterans
âĢ¦âĢ¦âĢ¦âĢ¦
Ġphotography
ĠDiff
318
Ġinitially
bytes
Ġenvelop
ĠEverywhere
Ġrevenues
45
Ġenthusiasm
Ġ304
Ġrid
cule
Ġreuse
Ġslaughter
SI
ĠMatte
Ġsurf
LE
Ġwhile
ievers
ĠRobo
Ġdocs
ĠQiao
Ġacadem
Bet
Ġnamespace
Ġslate
Ġbacklash
Ġbipolar
Ġengagement
Ġinterrupt
Ġslapping
Ġskin
VI
Gb
Ġroast
Ġcharged
Ġstands
Ġdiscovering
ĠUltimately
Ġallergy
baum
Ġassertion
Beh
Ġhiding
ĠDATA
Ġdesp
Ġsaints
ĠPompe
ĠREPL
Ġfre
ĠNight
Ġforb
Ġmaintains
los
ered
ĠClockwork
iable
Ġlesions
Voice
ĠOrth
Ġturb
523
z
ĠLoyal
Ġdarts
Ġspokesperson
oneliness
Ġpetitioner
Ġideology
Ġgrate
Ġrichest
Ġpaced
Ġdebian
pool
nc
ired
hetic
Cra
Ġcensorship
zes
Ġinterpre
IM
elect
PORT
Ġlofty
cale
ĠQB
Ġowns
803
Ġcultivating
269
student
Ġregulate
Ġexecutive
ĠSolutions
Ġprosecut
Ġlingu
Ġskelet
Ġcollege
Ġhow
021
la
lig
zai
ĠTess
Ġconfigured
Ġepisode
rollment
ĠCoord
alk
________________________________
Ġcapped
Ġ19
Writer
360
¥µ
razen
letico
Ġopposite
Todd
ĠYORK
Ġmaturity
utsche
Ġinvented
Ġcontracting
""
T
ĠWatch
Ġpineapple
Ġ510
nam
Ġaway
Sil
xs
Ġorganising
Ġpsychiatrists
comes
Ġaspirin
ĠSenators
ĠChung
ĠAmendment
Ġaverages
laugh
unic
erves
Ġrequiring
opy
ongyang
ĠPend
ĠBorderlands
Ġtwent
ogene
Justice
ĠVersus
ĠTerr
ĠStat
ĠTex
ourmet
Ġcoolest
ĠCoastal
nesty
Ġmull
rated
UNE
Ġmonop
types
adel
Ġminimizing
Ġpublishing
ĠGore
udic
oto
stocks
Ġgraceful
Ġ226
@@
Ġrubber
Ġmoaning
Ġvolunte
Lib
requisite
Ġtouching
3
ĠTRA
ptive
Asked
ĠFallout
Ġcateg
Ġdynamics
ĠShanghai
Ġdumps
East
ĠSEO
Extra
existent
Ġteased
Ġutilities
Ġinventive
Ġdisappearing
Ġalmost
Ġnight
Ġempires
uther
Ġtrouble
Ġputs
ĠUnreal
Ġlocated
urate
ĠConquer
what
Ġmeddling
fashion
Res
Ġadren
abilia
Ġmisinterpret
ĠEps
Ġ);
Ġsubset
Ġannoying
anish
Ġracks
ĠKnicks
Ġyoung
cat
Ġlowly
stated
sche
ĠSingapore
ĠNV
Ġmorale
ĠMuseum
athe
ĠSelling
'/
Works
Ġvowel
Ġpublishes
Ġbronze
ĠKanye
ĠUA
AU
Ġalthough
ĠCann
ipes
Ġnegotiate
Tell
Ġprinters
pora
Ġprofessionals
Ġcommissioner
Originally
Ġcurious
Ġlured
âĢĶ
];
ĠKrypt
faced
ĠÂ£
super
Ġcourage
Ġswallowed
nda
Ġexperimenting
oldown
Ġlawyers
Step
LAN
ĠLeone
Ġard
Ġconv
ĠSpir
ĠBrill
23
Ġhave
ĠVictor
ĠHok
ĠMeyer
Nintendo
Ġshowdown
Ġrestrooms
Ġpublicized
ĠYelp
ĠDele
Ġvitri
Considering
ĠPag
Hunt
rified
Grade
Ġpark
Ġforeclosure
Ġresembling
cf
Ġprotesting
Ġsag
Ġrecipients
Ġsinful
Ġsenior
Ġsuppliers
Ġtet
berra
Db
Ġmoney
Ġpredis
Ġpartners
ĠRespons
Ġreminds
ĠRolling
Ġour
>>\
AIN
703
ĠÂ¥
Ġextortion
ni
Ġchewing
Ġafraid
Ġpricing
FTWARE
ĠMeadows
Anim
Ġpotential
uters
Six
ĠMiy
Ġviolate
Ġjam
Ġjudicial
Ġ());
ĠPose
unders
sorry
reply
ĠBrenda
Ġcy
ott
Ġclutching
ithe
ĠMask
ĠHiroshima
Ġdoc
True
Ġfrivolous
etic
Ġalpha
ĠmL
Ġowes
Ġtreasurer
ĠSacrament
Ġhandsome
ĠPetraeus
Ġquotations
ĠLime
ĠStates
ĠElectrical
Salt
ĠYuk
Ġcarrier
ADA
ĠStatic
ĠSurvive
ĠHun
Liter
ĠEQU
Ġcomponents
ĠFrankie
Ġ253
ribed
ĠSignature
Ġhurricanes
arge
Ġbackend
Ġupstream
Ġconstants
Ġtunnels
Ġdoes
didn
ĠTat
Ġ1942
Ġheroism
ĠUpper
Thompson
Ġlun
Monitor
otted
oving
bc
map
Ġfacility
ĠVehicle
bles
ĠLIFE
unal
ĠLuffy
ĠRussell
Ġspecific
Ġfunky
Ġendure
ĠGw
Temperature
Name
Ġpreservation
atis
Ġphoton
Ġexcellence
Talking
Ġseparately
ĠAPP
married
Ġgreatly
rane
olitan
ĠRome
Ġmore
Ġundocumented
Ġhunts
ĠAk
Ġmidst
equ
ĠHelpful
589
ĠThompson
é¾
ĠSyl
biology
orph
Ġcolumns
Ġguessing
Ġinstaller
Ġrunning
ĠRX
Deal
Ġborn
âĢĶâĢĶâĢĶâĢĶ
95
Ġcass
TERN
Ġdried
Ġtill
Textures
Ġgrade
ĠSett
Ġcons
Cr
Ġanyways
fp
ĠEVER
Ġremarks
Ġmaple
anche
uments
Ġpacked
ĠINTO
Ġentert
;"
Ġ191
iameter
imensional
Ġrebuilt
Ġstrikeouts
Ġnan
ĠBang
Ġinteractions
Ġpics
Ġdeceit
aceous
Ġmagnet
ĠMr
ĠChar
agger
phans
PRE
Ġflashlight
Ġtwins
Ġsubsc
gc
Ġearnest
Ġcomponent
ãĥĸ
orsche
Ġadore
ĠRNC
Ġsolitary
ĠRs
Ġirrigation
ĠEur
Ġtemper
ĠWooden
math
Ġdonate
Ġtricked
Ġprompt
orc
Ġrugged
ĠDent
Ġassassin
ĠPhar
ĠINFORMATION
Ġembryos
Ġ1893
replace
@
ĠPOLIT
65
ĠMix
ĠRing
Ġmeasured
Ġculturally
bringer
ĠPOWER
Ġ($
Ġjuvenile
Ġtotem
ĠModule
ĠBalanced
Parts
Ġorganise
Ġ92
ĠDiane
224
dist
lections
ĠGA
Ġteammates
comb
Ġbrink
forcer
issions
Ġowned
Ġpickup
building
anya
ĠCommerce
amous
Ġretard
AppData
ĠKun
ĠEval
Ġpetroleum
ĠDwell
Ġcryptoc
Ġrally
Jessica
Ġrot
Ġfight
ĠHe
Ġwond
markets
Ġhomosexuals
Ġpowerful
Ġflowering
Ġoriginals
Ġinvests
Ġop
ĠSing
responsible
Ġrats
URL
Ġconvention
Kansas
Ġinternship
Ġvolunteering
Ġfactors
ÃĥÃĤÃĥÃĤÃĥÃĤÃĥÃĤÃĥÃĤÃĥÃĤÃĥÃĤÃĥÃĤ
Ġsworn
ifter
Ġpup
ĠPublished
Ġredesign
ĠRowe
alysed
ĠHungary
ä¼
ĠParish
807
ĠDeadly
Ġcurriculum
ĠTypically
ĠBut
rights
adium
ĠTough
usalem
iscover
ĠDropbox
ĠEnc
pos
secure
ĠDefendant
751
ĠHin
related
Ġresponsiveness
101
enz
Synopsis
Ġomission
ĠYou
ĠDrawing
esters
Ġrevolver
ĠBound
ĠTall
Ġparody
oS
ĠSox
ĠMohammad
detail
Ġplot
Ġdisputes
Morgan
ĠVM
Ġclassrooms
Ġjoints
ĠLawn
Ġstar
ĠForty
ulia
Ġreturned
Main
bis
torn
ĠPremiere
omorphic
Ġrapport
ĠCalif
Featured
olesc
ĠInventory
ultan
ĠMcCull
č
Ġaids
Ġheroine
ĠBrewers
thren
ĠJude
ata
Thunder
Ġwarrant
ĠGeek
Ġbarr
skip
ĠMM
ĠConduct
WIN
steel
URN
phi
Ġshortened
Ġrang
ĠChile
Ġdispl
Ġlegitim
\)
ĠDesign
Ġlayoffs
Ġinfluenza
Ġadip
ĠGrip
ĠThy
special
Ġsue
ĠUrug
ĠOath
Ġcold
Ġacre
ĠDamien
christian
ixel
ubes
-[
ĠArmen
hand
aq
ĠPractices
ocument
ĠFirearms
odied
Around
Ġconvict
Ġpub
pose
Ġdysph
Ġbegun
Ġdocumented
wit
Ġexperience
Ġrecord
guide
clus
ĠARC
Ġsecret
Ġmeticulous
Ġbalance
Ġstem
uo
Ġscraps
cone
ussions
ĠCro
eah
,)
Ġpixels
Ġdecidedly
ĠTIM
Ġtrendy
Ġethical
Ġforehead
Ġtouring
Ġyounger
Ġbewild
ĠStartup
Ġanytime
ĠLoving
Ġroad
ĠChanges
ĠSecondary
dr
Ġsan
Ġtolerance
ĠRoundup
Ġdeflation
ĠIron
Prop
opted
Â´
eus
Ġvehicles
ĠSchl
Ġchoking
ĠSOME
ĠGenesis
ĠScholars
ĠFeel
Ġalcohol
ĠOaks
oons
Ġbrand
ĠRonald
ĠInd
Ġwiring
ĠPathfinder
ĠAnalyst
Ġintrins
CVE
ĠOffense
ici
Attributes
ĠHus
ĠKan
Ġforfe
luck
ĠBG
2009
Ġbike
suff
Ġpronounced
ĠTrayvon
Ġceleb
-----------
ĠXperia
Ġsatisfied
Ġresources
ĠCorker
ĠPP
Ġaware
gress
690
ĠFarming
ĠJul
Ġmaj
ĠDoyle
Ġcafes
Ġorigin
black
ĠVas
Ġregular
ĠFBI
missions
ĠStanley
Ġunderrated
Ġsoy
Ġmiracle
Ġsatir
Ġonions
ochond
¼
Ġreturning
reported
Hope
Ġachievements
Ġunits
Ġcoveted
Ġresin
ĠObamacare
ĠAssociation
aval
Ġworth
ĠLead
Ġtrusting
Ġrecogn
ĠGeorgetown
ĠTurk
ika
Ġsupreme
ĠDive
ĠMosul
ĠNatalie
Ġweakened
ĠTuls
Ġindust
iky
96
ĠRealm
Ġsucceed
ĠAck
acca
ĠDepression
ses
Ġgull
irc
ĠDed
ĠBever
raising
Marginal
ĠMalf
ãĤ¹ãĥĪ
Drop
Angelo
Ġbru
ĠRookie
ĠIrma
Ġknocked
Ġmistaken
ĠContainer
Ġstripe
Ġskirm
Ġberries
Ġevacuated
553
selection
ĠFee
ĠWhy
ĠGuardiola
ardi
Ġscares
Ġhypot
ĠAchievements
Ġcooker
recent
Ġmerchants
estinal
Ġscanner
\/\/
Ġorganizations
rel
Ġprotagonist
Ġcenterpiece
ĠCommunist
Ġfellows
ĠMayhem
Types
Ġmarginalized
ĠCato
Ġdread
ĠTenth
gement
cash
Ġaltercation
Ġneb
Esc
Ġpleas
.âĢĵ
ividual
Ġcervical
ĠSchools
ĠModified
Ġsoftened
ĠMcD
Time
arus
121
Ġwords
Ġhorrors
LCS
Ġpots
Ġinvestigated
ĠPentagon
ĠTrib
ĠTorment
"âĢĶ
463
2500
ĠMilitary
eth
Ġagricultural
Ġtragedy
Ġentirety
Ġacute
ved
Ġstudy
Ġgrad
Ġhabit
Ġmanages
Alpha
Ġfavors
Ġoutdated
Ġmedian
Ġ322
liament
pled
Ġsurely
ĠDarth
ĠDems
hesion
ĠQuarterly
Spanish
per
untary
articles
à©
Ġsupporter
ĠContract
Ġconflicted
Ġstays
Ġrunners
ayn
will
Ġcyt
ĠRD
Ġspaceship
Online
Ġbrave
Ġadvance
Brit
ĠGrand
Ġridiculed
hh
ĠDivinity
ĠPeb
Ġpurge
Ġmsg
ĠSubaru
pur
Ġbrakes
iscons
ENT
ĠDAV
Ġairstrike
ophers
wives
Ku
Ġakin
ĠScand
ĠData
ĠThurs
ĠVOL
ique
uzzle
Ġreflects
geons
ĠSym
Ġtrails
inks
Ġconsisting
ixties
ĠSlave
Ġintellig
ettlement
Joe
ĠPars
ĠBristol
ĠHOME
Ġdismiss
byte
stals
miah
Who
ĠDiscuss
ĠGloss
ĠDoctrine
eds
Ġloneliness
ĠWally
ĠDow
oli
aned
ĠValhalla
Ġpont
Ġestablish
ĠInstitute
Ġvarying
Ġmarines
ĠGoat
To
ĠSurvey
Ġmodifications
reach
ĠMary
Ġchefs
Ġblends
old
chron
Ġcircles
Ġarmies
Tree
ĠLearns
Ġmonopol
Ġwidgets
Ġcyl
sm
Ġcannot
ĠWizard
Ġquizz
Ġrestored
ĠMirror
Ġunc
Ġfences
outing
ederal
Ġdeline
TER
adies
275
Ġthought
ble
article
Ġlosing
ĠCompan
ĠLeonard
heit
ahan
Ġquicker
Ġbucks
ĠRuk
Ġdefensive
ĠBack
registered
Ġprovide
ĠUNC
Yo
ĠSinai
Ġupbringing
Ġbottom
eling
WASHINGTON
ĠKang
uggage
Ġinsight
ĠScha
ĠFiber
Cap
Ġimprov
ãĤŃ
ĠSat
asuring
Ġcontrasts
Ġpresses
Else
Ġtransparent
ĠTay
Ġdebunk
ĠBLM
ĠHaj
ikawa
Ġcrucifix
Ġbetrayal
Ġexamine
Ctrl
Ġsomewhere
von
ĠUK
ĠGirls
route
Ġdirectional
ĠNorfolk
ĠPulitzer
ĠViktor
Ġsurviving
Ġinnocuous
Ġquadru
Ġnineteen
ĠAlley
Ġinterestingly
ochem
asher
Blood
Ġfilmmaking
Ġinvention
ĠTarg
ĠWarp
ĠPipe
imeo
Ġcongest
Ġbon
ack
Enc
Ġcalories
Scott
Ġancest
Ġlawful
ĠVanity
ĠTool
EMS
Ġbathrooms
ĠWilson
ĠRamsey
NESS
Ġterr
Ġoversight
Ġspeculated
Ġinterview
Ġunderstandably
Ġseamlessly
ĠNumerous
Ġvile
ĠBots
agna
Ġupward
ĠRad
ĠUzbek
Ġmacro
Ġcorrected
Ġ"""
Ġwheel
Ġflaw
ĠDram
Ġtranslate
Ġdeadlines
chool
elight
ĠFinancial
Ġrel
ĠRacial
ĠDoe
encers
Ġresearched
orable
Ġblurry
ĠJudith
Ġ383
return
Ġintroduce
ĠIN
528
Ġcontinual
ĠBarker
ĠEND
ae
270
hesive
Ġcous
Ġsunset
IRO
ĠParaly
Ġkept
','
ĠClapper
Ġsubdiv
ĠAmelia
ĠRao
ĠManz
Ġlatch
Ġlegalizing
SpaceEngineers
udging
Sen
Ġaveraged
ollah
Ġfro
Ġbranches
Ġgn
Ġcovenant
Ġskeletons
ĠOsh
Ġ314
ĠNYPD
ĠUNCLASSIFIED
Ġnowadays
Ġtablespoon
Ġawaken
Ġ1929
ases
Ġab
Ġtopic
not
Ġhence
ĠJunior
ĠSpurs
ĠSaid
However
Ġomn
Ġreforming
fal
ĠArrows
Ġgazing
Ġconverge
Ġoppressed
Ġtimber
Ġjack
281
cussion
xtap
Ġcounterproductive
Ġrunner
iors
olog
Ġrely
Ġgmaxwell
Ġmashed
Ġaccounting
Ġarenas
Ġmean
Ġplayers
ĠHale
uffle
Ġgre
hani
POST
ĠDangerous
chu
Ġmarket
ĠRosen
View
trak
pa
Ġwaterproof
]);
hel
MIC
ĠBelieve
Ġclay
ĠImplementation
ĠFur
ild
ĠAlone
Ġwagon
mounted
Ġrehabilitation
ĠSongs
sol
Ġdisorders
Ġintroduction
Ġhomophobia
ĠCec
Ġadministrations
Ġstartup
Ġey
uner
ĠOutlook
urga
Ġstd
ĠClayton
hest
Ġsinger
current
Ġimposes
Ġhindered
ĠFoss
ĠDen
ASS
Ġregulates
opt
el
Ġstatically
Ġtucked
ook
or
ĠDrake
Ġgrown
omsday
Ġ436
ĠNavigation
Ġreligious
ĠPower
Cache
ĠKnox
âĶ
ĠGu
Ġelectroly
Ġcaul
Ġvictimized
qs
ĠDonald
ĠPalestinian
Ġcrops
ADS
ricia
ĠSchn
Ġjewelry
Ġsnap
read
kin
Ġcmd
Ġbilingual
Ġsticks
Ġincorpor
Additionally
vill
Ġglut
isance
aky
ĠMoses
ynamic
yz
Ġsealed
Ġendowed
Ġwat
oct
Ġrooms
ĠCath
Ġshield
ĠProdu
ONSORED
uing
Numbers
Ġanal
venants
=$
ĠCensus
Feb
ĠKardash
MO
ĠCitadel
Ġsoup
Conf
ĠOle
ĠWayne
Ġassembled
ĠSelf
onduct
pressure
ĠGuid
Ġunemployment
ĠIch
Ġclutter
Unit
370
Ġrequire
Ġresource
Ġarbitrarily
Ġmer
ampton
kernel
ĠCatholic
Select
ĠMitchell
Clear
ĠSabha
785
Ġendot
ĠClasses
Ġsperm
ãĤ¢ãĥ«
ĠPett
ĠAQ
Ġhorrend
ĠBurgess
hospital
ograp
ĠLua
Ġsouls
Ġseas
Ġparticipated
NK
ĠLocked
ĠTib
Ġmosquit
Pract
rition
Eat
ese
Ġchimpan
Att
ĠOrange
Ġintend
ĠCreed
ĠGalile
Space
Ġmarker
third
Ġembraces
ĠComm
ĠOCD
Editor
expected
ĠMAT
Ġtune
ĠLindsay
ĠEchoes
ĠSTATE
ĠOrthodox
ĠAim
Ġconsulting
ĠRemote
Ġworrying
ĠHood
Ġscheduled
ĠCitizen
Ġseeks
Ġvoices
nington
Ġlayers
ĠLEG
ĠCircus
Ġbureau
Ġcolon
uyomi
owship
Launch
ĠCatalan
ĠRelease
Ġrepr
ynchronous
ollywood
ĠPaid
ĠHands
Doug
rpm
oton
shell
ĠInit
Ġreveals
Ġrocking
Ġbosses
PR
Ġoy
oded
ono
mers
Ġcheckpoints
ic
Ġparcel
ĠVICE
Ġsubstant
Ġfals
ĠCly
bre
pants
Ġnefarious
Ġbeginning
ĠXP
Ġbounded
Ġmisrepresent
asks
by
909
ĠLys
Ġevade
tail
Ġrevis
ĠVPN
ĠKar
Ġthousands
Ġbarren
shake
Ġrehabilit
Ã¼
%).
ĠRegistry
Ultimate
ĠWinston
uting
Ġcounters
Ġdoctors
ĠSalv
ĠkWh
Ġgrapple
Ġwrecked
Ġ373
shut
ometers
Ġrates
ĠSpecialist
Ir
Ġactivity
groupon
ĠÃĹ
ĠConvention
Ġcircumference
340
Ġbroadcasts
Ġtension
ĠRatt
ĠWra
SK
Ġdeficits
ĠKe
ĠMonsanto
Ġoz
orbit
ĠCall
ida
.<
arel
Ġcompliment
Ess
ĠOK
Ġ"/
Hit
brown
Ġdilig
ure
Ġradio
Ġ58
Ġhair
ĠDeploy
ĠStrait
Ġlaced
ĠJewish
ĠCellular
Ġdiagram
âĶĢâĶĢ
Ġsail
Its
ext
Ġarguably
Ġsalvation
ĠÄ
olester
IJ
Ġmoan
realDonaldTrump
pleting
Address
Ġ__
Ġequals
ĠUsing
Ġcalendar
ĠDest
Ġerect
ideo
Ġshades
Ġincompet
fml
ĠBow
Agent
ress
Ġhospitality
âĺħâĺħ
ĠHat
ĠBird
Ġmotivated
Ġfootwear
versive
ĠÂ½
Ġschedule
ĠFer
own
Ġmurderous
ernal
Ġrewarded
ĠACA
oxide
ĠTR
Ġsalesman
Ġhaz
Earlier
ĠEntertainment
ieval
urch
Ġrapists
Gil
erer
Ġclarity
ĠMUCH
ĠRight
ĠParadox
Ġparser
ĠMare
Ġsegments
irt
ĠSven
Ġspectators
Close
----------
Ġdefic
Ġfemale
Ġdict
ĠMD
ĠHue
Chel
Ġcrush
Ġblush
Ġpersecution
lines
asonic
reditation
cap
Ġmon
Ġcharismatic
ĠBallistic
Ġserver
Ġpassengers
ĠRanked
ieu
profits
Hom
ĠReporting
ĠSeason
Lean
ĠAlb
Ġ1960
Ġspotting
ĠTherapy
Ġinformed
indal
ibles
ĠHardware
Ġfactions
ĠHQ
ģĸ
Ġshif
efficient
Ġmelting
byn
Î±
footed
pher
peace
Ġ));
ensis
ĠCombat
Ġ388
Although
Ġempowerment
Ġcreative
please
pour
greece
illusion
ĠMcF
Loop
ĠEnrique
ĠCMS
ĠRespect
acqu
Ġsolution
ars
ĠAlc
ENTION
592
mediate
oses
Ġimposition
Ī
Ġsuccessor
league
ĠLoop
Ġsecretion
ĠSn
ĠVotes
ĠDare
Ġundecided
Ġhefty
Ġmanip
ĠResp
pop
Ġco
Ġdiff
ĠLevels
argo
Ġexponent
Ġexperts
Ġcondol
ĠHealth
acle
Ġlug
ĠSection
Ġdirect
ĠOp
Ġstuffing
Ġseeker
ĠSche
Russian
×ŀ
Ġcostume
Ġdownhill
ĠAry
Ġobvious
Mid
ĠIs
ĠCourt
Ġstrongly
ĠMonteneg
ĠCorpus
authent
Ġris
iliar
next
ĠUnicorn
illet
Ġeats
ĠHAS
vision
Ġposters
ĠDhabi
Ġunilaterally
nit
ĠPyth
ĠBold
stri
Ġarsenic
Ġcounsel
5
ĠDays
Ġpredator
hitting
ulnerability
iping
iflower
break
ĠPoster
Ġhostage
ĠMatthew
Ġelastic
ra
Capital
Ġenlight
ĠMust
illing
uruguay
ĠCreative
uminium
Ġdrama
Ġmechanically
ĠCaroline
utenant
Ġintegration
Virginia
Ġsuspicion
Ġdeaths
Ġshaved
Lair
ActionCode
ĠZion
Edit
Ġimplementing
Ġsheltered
ĠInteger
Ġcreating
ĠGranger
ĠGaia
Ġshotguns
Ġworkers
Ġpriorities
utable
Ġcarpet
ĠHast
ixie
Return
397
Ġgulf
ĠCU
proven
Ġ(*
ĠBeam
Ġadvantages
Ġadvers
alth
ĠMach
Church
Ġcaptain
elled
Pref
Tom
Josh
aa
Glass
Men
Â§
ĠComb
Murray
Ġinconvenient
25
icon
Ġmerits
Apr
Ġdistilled
Ġcircled
otions
ulp
published
Ø§Ø
Ġfrequency
ĠBeyond
Ġblatant
ĠPaige
endars
ĠCO
Ġaffinity
ĠAdventure
Ġapr
Kat
Ġ229
ĠVatican
495
ĠProductions
ĠTulsa
Ġcondensed
ĠiPads
urban
awaru
Ġdisability
ĠQue
hesda
uran
edia
ĠPM
ĠDeus
IRD
agascar
With
endas
Ġhosts
property
ĠCargo
ofi
estial
Widget
ĠNato
ĠAfgh
String
Ġ1971
ĠIncludes
Ġreminding
Ġpundits
474
ĠAffairs
Ġexport
ĠReserve
tra
inic
Ġconvey
Ġthighs
Ġfold
umbledore
Ġah
980
ĠExtreme
ergic
Ġstormed
Gam
Ġpopping
scripts
Ġcorrective
ĠHyp
Ġclaims
Ġshroud
Ġrelig
HAHA
agi
Ġrepet
Ġinterrupts
ĠSpanish
Ġcp
ages
iability
arations
ourke
ĠTTL
Ġladder
indu
Ġsuppressed
Ġtapped
Ġfavorite
Ġpesticides
Kate
ilts
Ġnort
Ġwelcoming
Ġusb
ĠPortal
":
Ġmember
Ġvariations
ĠTechnical
Ġshrine
Ġlock
Ġfaux
bat
Ġquant
apore
ĠACL
pkg
Ġanguish
Ġimpecc
Ġensures
Ġracists
ĠFail
Ġham
CSS
=]
Ġ".
Pl
Ġaluminum
ĠKatherine
ao
ĠANG
acho
comings
the
ĠExaminer
ĠPurple
Ġpotassium
Ġharsher
Ġhelpful
spe
estamp
ĠNeville
bu
ĠDuff
pet
ĠIL
Ġtherein
Ġlegacy
Ġtutorial
ĠFashion
ĠCig
ä¸Ĭ
LAB
916
ĠQR
Ġintellectual
ĠReform
ĠStain
ĠCord
Ġbec
ĠNom
irlfriend
Ġarrangements
ĠFran
Ġbaseball
Ġmarg
Ġpain
Ġwear
Ġadmitting
ĠSalman
Ġlasers
partial
ĠWWF
Albanian
Ġcasino
unk
Ġsalv
erson
Ġrequisite
forum
Ġdecks
Ġsanity
.'"
ĠAOL
Ġfurther
ĠNotification
ĠProblems
Start
Ġcoral
Ġgob
ĠEmpire
Ġfavourable
ĠCE
Ġunlocking
ĠRedemption
ĠFB
Ġtorque
ĠAvalanche
ĠPLA
ĠAdvocate
Yes
Active
Ġpray
Ġbases
Ġbroch
Ġeternity
ĠLTD
oling
Ġoccupancy
ĠSle
Ġmanure
Activity
ĠAqua
Ġexpressive
ivan
mission
ĠXY
ĠDownloads
ĠScripture
556
Ġsegregated
ĠVe
Ġcultiv
ĠMiranda
Ġinvestig
Ġwarm
ters
Ġcartridge
Ġcites
Ġexcludes
ĠMam
Suddenly
ĠLunch
Ġprotection
info
rypt
rimp
bourg
keepers
orman
ĠBlaze
Ġmesmer
Ġwiped
ĠSize
Ġresponses
ĠRomance
Ġavalanche
Ġconstructor
phthal
onew
ĠConn
ĠBurke
ĠNether
ĠWa
extremely
Ġparts
Ġdomain
ĠCoach
Ġimp
args
bians
ĠTend
Ġ161
ĠLat
Ġtemplates
Ġnostalg
Ġ435
pox
Ġsinking
ophone
ometer
Ġtype
isted
Nit
ĠNoir
Ġmenstrual
Dean
ĠNicola
ear
ĠAnk
offensive
Same
Ġunfolding
As
Ġmanageable
Ġborrower
chieve
etary
ĠOsborne
Î»
lords
Ġsuccessful
OPS
ĠImpossible
ĠFlam
I'm
Ġdiscriminatory
nesota
Ġdeity
ĠSummer
ĠFr
ĠBounty
ĠSc
HCR
Ġrepo
BU
Ġenlisted
Create
ĠDru
ĠSWAT
today
ĠMellon
Ġentails
ĠBiological
ĠGibbs
%),
ĠGloves
Ġunman
Ġ499
paio
Ġteammate
Ġsensible
Ġcourse
ĠSerbian
ĠRH
ĠNem
Ġdisperse
ĠSOS
ĠAdviser
ĠDwar
stats
ĠGill
ĠThailand
ĠMPEG
Ġplayground
CU
GGGGGGGG
ĠGlobe
Ġprobing
ĠPug
Ġli
Client
Tool
Ġconfer
Ġgarnered
ĠReincarnated
any
Ġciv
ĠLotus
Ġfinances
Lt
211
Adam
net
Ġrepresented
Ġconverting
ĠButcher
uttering
Ġpopulist
Military
ĠChaos
Ġrestless
Ġwww
t
Ġbes
ĠHarry
lihood
itutes
ĠJong
ĠBoot
olean
ĠLong
ĠNat
evaluate
ĠBoots
wave
Ġbearings
Ġcaution
ĠMoon
Ġ1948
ĠRules
leased
Ġcreat
Ġqu
ĠKerry
ĠAtlas
informed
Ġ1080
Ġoral
Ġdeleted
Ġ189
cil
Ġhazard
story
ĠMK
Ġpies
Ġpneum
actively
Ġexpel
Ġjoyful
fe
riors
Ġ1931
zz
ĠWheels
entry
Ġprototypes
Ġè
rig
ĠTD
olding
Ġechoed
ĠHussein
param
Ġbranded
classified
PF
ĠGar
Ġleg
ather
Ġarea
Ġphone
Ġauthent
Ġspent
ften
Ġcharming
Ġqualified
gran
Ġstylish
ĠOverse
op
ĠLog
invest
ĠSung
ĠMcM
jet
Ġmis
ADD
ĠJohnny
Ġwhiff
Ġstrongest
Ġsentencing
Ġce
Ġceremonies
Ġod
Ġimitate
lessness
Ġcasualty
IAS
ĠSar
occupied
ake
led
953
Ġexcessive
module
ĠCitation
pt
ĠGuitar
ĠElection
Ġhighs
ĠSoy
ĠDiary
Ġexposes
Ġshare
Ġexchanges
Ġresting
ĠStarbucks
Ġrecl
Ġbooks
Ġunjust
Ġpreval
Cool
Ġmayhem
Ġmim
Ġbuckets
Ġinterfere
ĠLaurel
Ġshelter
Ġgreeted
ãģ¨
too
Ġnotable
Ġroar
Ġgospel
Ġaircraft
Ġstigmat
ĠNeither
oire
ĠJean
ror
ices
!?
ĠPinball
ĠJump
stad
Ġcoaster
ĠKem
Ġtag
Ġmakeshift
omatic
hill
Ġoperators
ĠUnderstand
Davis
Ġjustified
ĠKN
techn
Ġsteam
Ġrecruits
Ġperpetrated
Ġsiph
Ġexclusive
Ġstrike
Ġreplies
BT
Ġtailor
ĠNico
ĠSard
ewitness
Ġeuph
Ġcakes
Link
Ġov
fifa
Left
Ġconvert
hin
Ġwho
Ġchopping
ĠCot
Ġskeleton
pathy
Ġvisibility
Ġvoyage
ĠComey
ĠACE
Ġworse
Ġshakes
Ġrepressive
Ġdistinguish
ĠWarriors
949
ĠCertainly
Ġbenign
ĠLic
Ġlifting
ipedia
ĠAbilities
Ġevaluations
shield
Ġnavigate
ĠAmsterdam
ĠNazis
accompanied
}.
Ġir
fil
Ġforthcoming
OTH
ber
Ġavenue
ĠDeL
gow
vil
ĠSteve
ĠUFO
ĠCompanion
Ġfund
Ġlovely
Ġ1950
Ġunfolds
uding
MS
Ġleaks
Ġcoffers
erm
xual
un
Ġphrases
Ġreporter
GT
Ġmonk
Ġcapable
Ġrefinement
abee
Ġaudition
ĠFundamental
ĠLeban
ĠMonitor
ĠWAY
intage
ĠBurton
Ġsacr
Russia
liquid
Ġevangelicals
Ġdoubtless
Ġemerge
Ġyear
ĠDrive
Cho
Ġplateau
hack
Ġliberated
Ġinaccessible
Ġframework
ĠComing
Ġtolerate
Ġchau
Ġgently
Audio
ĠNeurolog
9
Ġimaging
ĠHig
Ġlasts
ÃĥÃĤÃĥÃĤ
ĠHolly
Ġculmin
Ġbreastfeeding
Ġsubscription
Ġadept
Ġofficial
Ġoverturn
Ġ(&
ĠMysteries
%%%%
ĠSoccer
atre
Ġhearing
Ġruining
ĠAb
Ġaval
mid
progress
reg
ageddon
ĠFinal
ĠMarble
Ġconstitutionally
Ġmonog
ĠCurse
ĠEnvironmental
Ġ7
Ġpackaged
Ġperl
ju
ĠDisclosure
thening
Ġemblem
Message
ĠCinderella
Ġconj
Ġmisunder
ĠNas
Ġscouting
Ġoccurring
Ġconceptual
Ġupfront
Ġengraved
reddit
Ġ["
Ġhorror
383
Ġlayer
ik
igrated
patient
Ġstrictly
ĠYears
ĠParts
Ġdiagnostic
Ġassessing
orst
chat
Ġcorporate
ĠMy
bors
drawn
Ġunderstatement
Ġ1924
Ġperjury
olon
ixt
Ġspecifies
ICAL
ĠKum
shaw
orters
ĠHag
Ġshipped
Ġtrigger
gery
Ġinsignificant
Ġfinale
ĠAnimation
Ġaccommod
Lady
eyed
ĠÂ¯
Ġunsu
Ġaffili
Ġconvenient
EMP
Ġsurreal
Ġpanels
ĠChili
Ġgoose
Ġ05
Ġthing
ĠFact
ĠCycle
Ġ1940
ĠCowboys
tto
Ġtelecommunications
ĠOF
utorial
Ġemerged
ĠSector
isal
clair
FREE
Ġrecover
ĠLimit
ĠMerchants
ĠRadical
Ġunity
Ġvegetable
wd
ĠFrazier
player
Ġparchment
ĠMah
Ġarticle
Ġ1300
bum
Ġinstructors
ologist
aley
ĠOscars
ft
âĸĪ
none
ĠParagu
Ġviolations
ĠFin
Ġgaining
Ġplaceholder
ummies
atron
Ġcharism
Ġnorth
ĠLEVEL
aya
Ġlayout
Parameters
Ġopp
arch
Ġrepay
ĠEsports
Ġinvestors
ĠColeman
Ġvenues
Ġ195
ocalyptic
UD
Ġits
Ġenqu
Ġtrilogy
Ġperplex
Ġamput
Ġpastor
Common
Ġsupp
ert
jection
Ġmuff
ural
ĠTeams
Ġbiological
ghazi
ĠUkrainians
ĠCad
ĠSack
Ġking
NOW
ĠScotland
Ġedible
ĠMint
Ġhumidity
Working
Ġdeter
leground
ĠDES
ĠSantana
ĠRepe
ä»£
Ġdivides
ĠDempsey
Ġtactical
ĠAnglo
Ġmascul
ĠPerry
Ġlibertarian
Ġmethyl
Ġordinances
Ġsubtly
ugu
Ġscrewed
APP
Ġdoubled
Ġinsanely
Ġunatt
Ġjars
ĠMarin
ĠNX
Hack
Ġlapt
pping
bodied
Ġrenegoti
ĠJaguar
Ġvegan
Ġpeaked
Ġtight
ĠBuddh
inated
Ġreceives
Ġmysteriously
assadors
Ġbuy
ãĥģ
Ġparamilitary
ĠShips
anger
Ġbackyard
ĠChilean
ro
EEP
seekers
Ġnicely
254
300
pel
ATTLE
Ġpossesses
Ġthrone
Ġattendees
ĠHimself
Ġsurface
ĠCaribbean
Î¹
Wow
Ġorgans
Ġlabou
issors
ĠArctic
ĠDeter
ĠJeb
Ġpeacefully
Ġsummarize
Ġappearances
Ġdiscourse
Ġpracticed
ĠLAN
ĠGOT
ĠFriedman
Ġlean
Mach
Always
Ġcivilization
ĠJuventus
ĠOrlando
Ġsignaling
ĠEmbassy
ijah
ĠÃ©
Ġstemmed
ĠBritain
Ġbumper
anny
Ġshun
ĠBenz
Ġcod
Ġcele
Ġvs
Ġexcuses
ĠSlide
channelAvailability
ple
Ġcounts
ĠHendricks
ĠSUR
istic
ĠClassification
Ġproteins
Ġpresently
Ġsocialists
ĠHeld
Ġgiven
295
abad
Ġpermanently
(){
ink
Ġanth
Ġsynchron
ĠMaduro
Ġdissu
Ġanchor
rw
Ġliquidity
Ġconcent
çĲ
Ġapplied
Ġ84
ĠOnce
å®
ĠFairfax
Austral
ĠJournalists
Ġchord
ĠBram
idian
Experts
ĠIss
ĠOracle
ĠSusan
Ġinqu
ĠFlickr
Ġtrib
Ġnamesake
999
inka
ĠDiet
ĠMerc
Ġtransgender
806
URRENT
Ġkickoff
ĠNau
ram
pak
Ġmorph
untled
ĠKag
Ġpun
ĠMassacre
ĠCamden
Ġstockpile
Problem
myra
Ġadmin
Ġphenotype
ĠCW
Ġ1981
ĠCarnage
Tes
arger
ĠMent
Ġrelies
ĠJapanese
ĠFurther
ENG
Chance
Ġdevelopments
direction
encing
Ġdiscrepancy
Ġconstantly
ineries
ĠWang
Ġbelieves
Ġobtained
Ġsin
Ġarrog
Chicken
Sy
ĠMacArthur
Ġclumsy
Ġbears
Ġraids
Ð²
Ġidle
Ġobserve
Ġcontentious
Ġinflation
pection
ĠImpro
ĠCater
Ġkb
ĠDove
ĠCharlottesville
THER
ĠAlloy
Ġstunt
warn
respect
othing
Ġcatching
ĠElect
Ġshe
Ġconstitution
Ġtray
Ġtw
Ġfiance
ĠDeluxe
Assuming
ploy
Ġbrewers
Ġ601
ĠMercury
ĠFre
ĠJoined
220
Ġlauncher
ĠGovernors
ĠMush
izable
Ġoccupy
ĠStellar
Ġvets
Fore
Ġpattern
Ġcat
Ġmodified
Ä±
strength
Ġindex
Ġcontraction
stab
Ġexpands
Ġpokemon
ĠDarling
Ġmoss
onder
Console
animous
Ġpal
ĠBurma
ĠSG
Ġhope
ĠLate
Ġpaternity
ĠCes
Lago
inness
amer
ĠBalt
Ġpredicts
Ġsustained
Ġ(~
Ġemph
:\
Cook
hz
ternally
Ġsiblings
Ġsharply
ĠCarnival
ĠBobby
ĠMiles
ĠlargeDownload
wallet
ĠLexington
17
Ġsustainability
Ġarc
lib
Ġclinical
ĠHeidi
Ġembold
149
Princ
ĠGOP
ĠSpeech
ĠReneg
Ġcorpus
ĠKremlin
grand
Ġoverc
ĠBits
ĠMuk
ĠBlackhawks
ĠEyes
cation
ĠDeveloper
ĠInsp
ĠShining
best
Ġbehaviours
ĠBugs
Ġminorities
ĠClarks
lees
fi
Ġsystemic
Ġbullshit
ĠWays
ĠCosby
ĠDavidson
Ġasset
ĠCandy
ĠJudaism
ĠShort
Ġconglomer
ĠÂ°
Ġcomplications
Ġgou
Ġdrummer
udd
ĠAmbrose
ĠIDF
Th
Ġformed
ĠRem
lex
Ġminion
ĠFog
Ġmonumental
collection
ĠShap
Ġprematurely
Ġsuits
Studio
Ġevacuate
Ġunfl
**
Advanced
eed
encer
onge
ĠPlatinum
ĠFarm
ĠLinks
craft
Ġsanctions
Ġimpe
ĠCongressman
ĠFidel
Ġmasters
ĠCrosby
reme
Ġhacked
ĠDevin
Ġbour
ĠLOL
Ġbourgeois
Graham
ĠParan
Led
Ġchanting
ĠBrian
Ġparachute
ĠHugo
ĠTube
Ġenh
Ġrobbers
Ġvacation
Ġdrunken
paying
Ġcompe
Ġrecorded
Ġvibr
Ġrefuted
Ġeurozone
isher
Ġplanes
INST
Ġimpairment
Ġcable
Ġchunk
ĠÂłĠÂł
anus
ĠRobinson
Ġceased
cerned
icidal
ĠGeological
ĠAnonymous
ĠGreenberg
ĠNazi
ally
Ġdegrade
Ġordeal
Ġdevast
ppy
Ġglyphosate
Ġdetainee
Ġmelted
Ġdisbelief
Ġretracted
ĠGathering
Usually
ĠMead
Ġsweats
`,
Ġsoftware
rily
ĠYang
Ġforgot
Ġtogether
Ġlists
Ġgangs
Ġtelephone
Ġell
Ġthou
death
prisingly
ĠKraken
Ġubiquitous
jud
Ġprince
Ġangels
ĠTriumph
ichael
Ġuses
unte
Ġconserv
Ġabsor
ĠPrepar
Hol
Ġevapor
316
ĠBachelor
ĠROM
ogether
Ġsubstr
ĠIslamist
Ġcertain
Ġmanage
Ġ\'
politics
ĠManga
Ġunveil
ripp
Ġelephants
Mi
Ġlaureate
ways
Ġattribut
basic
Ġillusions
ized
Ġ11
Ġfilmmaker
ĠIntegrated
Ġleads
Ġvital
Ġabort
gz
Ġstim
ĠOpinion
iam
ãĥ´ãĤ¡
Ġannihilation
Ġdefamation
rav
Ġmishand
GAME
ĠCrawford
pan
Ġvow
Ġinvolve
cknow
Ġblockers
download
Reports
Ġxp
stery
ĠFeast
Johnson
Administ
bending
Ġtrunk
ĠToll
URR
Sanders
fried
Ġamong
HA
ot
Ġvariation
Ġmunitions
Msg
Sad
ORED
ibility
Ġmuscle
Ġneutrality
Ġ281
uv
Ġwed
"}
upload
ĠSpock
ĠStras
Mask
Ġmarathon
Ocean
Ġendorsements
initialized
Enhanced
ĠHess
cry
Ġvertically
ĠITS
Ġcautioned
uberty
Ġstories
Hor
Ġimmigrant
ZI
='
Act
ĠManhattan
Ġcontin
intend
past
ĠAston
Ġvintage
ateurs
713
NULL
Ġparliamentary
Ġ+#
Ġquotas
Ġcompressed
ĠIre
ĠStacy
ĠRSS
Beast
Ġinmates
acements
OWN
ĠTable
Ġbreeding
Ġmal
118
Ġdentist
ĠAssist
ĠString
Ġplugin
ĠInternal
Ġnomine
Now
ĠIdeas
Ġferal
izz
quest
CN
Ġerased
ud
Ġbeaten
Ġhel
Ġcongrat
Ġattendant
ĠMaher
ĠATM
Ġcounties
rings
ietal
izabeth
Seven
ĠHimal
ush
ertation
Ġsunlight
Ġb
Ġburgl
ĠLeonardo
oha
ĠSinger
Ġ1986
Ġlong
ĠEnglish
ĠFoot
trust
Ġeased
ĠNightmare
Ġwip
Ġrunaway
Ġcrunch
Ġalive
Ġcolonization
alert
AC
ules
icial
ĠPerkins
ĠRuntime
fore
ib
ense
<
balls
Ġnoticed
ĠSheffield
SAM
Ġexcruciating
Ġaddicts
Ġ217
tap
Using
Ġcoordinator
tten
ĠCruise
whitedaso-1
ablo
ĠSIG
Ġsculpture
Ġsuffered
lie
against
ĠNuclear
ĠRelationship
UST
ĠPass
ĠNora
ĠSponsor
ĠChandra
iding
Ġraces
Ġalike
Ġcoincides
harm
Ġbox
Ġspo
Ġteamed
Ġparad
u
ĠWash
Ġdementia
ĠNobel
ĠPink
Ġorcs
Ġfuelled
ĠHouse
ĠController
QU
arton
ildo
pei
Ġpatrolling
ĠWITHOUT
ĠShares
Ġantique
Ġceilings
misc
Ġrecipes
ĠMechanical
Ġphoto
Ġquad
Perhaps
Ġdiscord
Through
between
ĠCompass
Ġcompet
Ġoccupation
controller
ĠZin
ĠPerception
Ġmurder
596
Ġuniversal
Ġbold
Ġnonviolent
rival
study
ĠClement
Ġexha
ĠIR
Ġdebts
Net
Ġexaggerated
Sync
Ġbriefs
zel
Ġcelebrity
communication
bernatorial
ĠLogic
Ġdespite
Ġtowel
ĠDat
Ġenvy
ĠMagical
Ġquotation
ĠVernon
Ġalienation
hook
Ġguarding
Ġbet
roid
ilateral
ĠStur
Ġadversity
ĠPin
Ġcounter
ĠAc
lett
Ġtreadmill
Ġgro
Ġanonymity
ĠPegasus
ĠPradesh
ĠPurdue
ĠDisneyland
PHOTOS
prises
scar
Ġhallmark
ĠNYT
ĠBrave
ĠMartinez
Ġclubs
ERG
ĠCNS
Ġanswer
ĠJosh
ĠAndre
ĠDoll
ials
Ġentered
ĠBeauty
research
Ġtiers
ĠForm
Alien
Ġtee
ĠCutting
Ġsyn
Donnell
ãģ®å®
ĠDise
edar
ilingual
Ġbehavi
Ġ>
su
Knight
Ġtennis
ask
ĠChronicles
wolf
ĠCAD
Ġliberation
Bern
neau
ĠLord
People
iffin
ĠSnape
ĠIndustrial
Ġdreams
ĠMarks
Ġ269
Know
ĠPresident
ĠTyp
Ġjustices
ĠEXT
Ġstandpoint
Ġsubsidies
Upgrade
wage
negie
goo
Ġselected
Ġdst
Ġbrowsing
Ġrc
Third
ĠAcross
Ġtx
ffield
ĠFasc
Ġrestore
ĠMU
ĠUriel
Ġmur
ling
Ġantidepressants
Ġprovoked
ĠCPR
ĠMyth
Ġparental
itially
Ġculminating
ĠLori
Ġtended
Ġledge
hedon
Ġbelly
Ġdocumentation
.ï¿½
agh
024
Ġspiders
Ġnonexistent
ĠPrototype
ĠLair
Ġrefusing
ĠSew
Ġpopulations
ĠMamm
Ġtrade
ĠHur
leeve
ĉ
Listen
Draw
Ġ.)
ols
ĠColor
ĠOR
558
ĠIQ
ĠTags
$
ĠTobacco
),
âĢ¦âĢ¦
Ġrating
RC
txt
INA
Ġsuspect
heon
Mah
ircraft
Ġconsists
ĠWM
Ġheed
Tim
ĠFame
amping
icals
Ġpornographic
reference
ĠRegist
broken
Ġcemetery
OPA
Ġbriefings
Ġability
Ġoversees
ĠCombined
ophe
Ġburns
Yang
ĠIranians
ractor
opers
da
Files
IE
Ġconflic
ĠMessage
Ġmarketed
WA
Marco
Ġteaser
æ©Ł
Ġquer
Ġwhatever
gemony
ĠEngels
ĠBend
Ġchild
OL
ĠHero
ĠButt
382
eb
ĠCue
Ġcrushed
º
Ġpatents
Bridge
ĠEighth
ĠProtector
ĠDaughter
hai
ĠShortly
ĠIranian
verse
nb
Ġgrinding
Ġreduction
ĠBott
ĠIG
chatgpt
Ġstimulation
Ġnailed
Ġgem
fourth
Ġproceedings
Ġtresp
Light
138
ĠActual
Ġsatirical
Ġbirthplace
ĠBed
Ġfloral
paces
Ġtracked
Ġintoxicated
ĠAbbas
ĠHyundai
Ġcoil
Ġblunt
Ġbowls
442
Ġexam
Ġbatch
UES
833
Ġvictory
ĠBrothers
erv
oo
Ġdisse
!).
Ġ259
Ġsweep
Ġtirelessly
Ġmill
irlwind
Ġ2010
ĠYs
Ġ1919
Ġsuccessfully
ĠSob
ĠMormons
ĠNietzsche
axe
Ġwh
Ġinf
comment
Ġnovels
Ġsched
Ġmarking
ymph
Äĵ
ĠArtemis
Ġampl
Ġpardon
ĠVital
agements
Ġalarming
ĠChance
DE
ĠZoro
Ġunderwear
Ġcontinuing
ĠPrec
Ġgroin
]'
Js
ĠPsal
Ġhockey
Ġshower
Ġwarmth
Ġdense
odynam
ĠSil
182
âĸĴ
ssh
IZE
Ġaffirmative
opter
Ġmessy
Ġoffender
ĠDistrict
acter
kind
Ġcommunity
Ġmechanisms
Ġ175
Ġgoats
Ġfascists
Ġmighty
joice
ĠAme
Ġpressures
ĠTDs
Ġweren
Ġmarried
Ġ"#
Ġheavyweight
great
Ġperception
Ġsailed
Volume
acceptable
Ġswept
Ġcannons
ĠThom
ĠTrinity
Ġ247
ophysical
Ġgrilled
Ġwidening
uck
ĠPrest
Ġhinges
ENN
Ġrendition
ĠShinra
Ġstems
roximately
lean
ĠÙĪ
Ġaur
Ġbicy
Ġaccidentally
ĠHardy
ĠLess
gin
ĠVitamin
ĠEngine
Ġprovision
iatus
Ġsuperflu
Condition
Ġdecides
ready
ĠEspecially
Ġconducting
Ġrecycling
Ġthemselves
Ġtestify
Ġhandwritten
reverse
Ġslam
Ġfactual
ĠWW
ardless
Ġintensified
stuff
Ġ1830
ĠBoone
ĠPlanetary
ĠSyrians
Ġascert
pire
Ġthereof
Ġsomewhat
Ġtraditions
ie
ĠZero
Ġ./
ĠCLA
Ġlamented
urgy
Ġidentifiers
''''
Ġscrim
Ġpoultry
Ġclergy
sponsored
Ġ420
Ġreflection
Ġmast
ĠCran
Ġrusty
porate
Ġknown
Ġcrowds
nin
Ġone
Ġunintentionally
arr
ĠDw
ĠDaddy
Ġcirculation
Ġthunder
LAND
ÏĤ
Ġshrouded
Ġmorphine
ens
Ġcheeks
iologist
ativity
Ġenjoyed
interstitial
Management
Ġsilenced
Ġ/**
ucky
ĠBean
ÙĲ
Wan
ĠKung
Ġrecognizable
oko
rost
ĠGri
ĠPosted
ĠLeah
Ġstorefront
ä½¿
ĠJeff
animation
Ġservice
Ġserve
bb
Ġboiling
Ġbleed
ubi
Ġirritated
ĠRepublican
Ġunicorn
Ġphysique
Post
umbnails
Ġastroph
Ġanalytics
Ġreception
ĠRober
Ġcommenters
bigger
manufact
amera
Ġslick
Ġbelief
Basic
builder
Ġpacif
ĠFork
one
Ġpull
kit
%;
ictions
ĠExpert
ĠDull
ĠPush
Ġworms
ĠPatrol
ĠDeVos
Ġsects
Ġintelligence
Ġsting
ĠBM
Īè
Ġthankfully
Spread
Ġsemblance
ought
Ġuncanny
Ġgri
ĠLange
ĠMages
Ġes
Ġquint
ĠAnnotations
Ġenclosure
Ġtoler
Adams
ĠObamaCare
Ġadventurer
such
áµ
æĺ¯
ĠDoug
Ġfalls
Ġorbits
alach
eri
System
ĠRoc
ĠErd
None
Consider
Ġreality
EA
179
Ġpumps
Crime
Ġaffirm
ingers
Oak
ĠReal
Ġprofit
doctor
Ġicon
andi
OW
Ġcohorts
etition
Ġmist
Mo
ĠCOR
Ġyells
ĠTelevision
Ġpetty
Ġreforms
ĠDynamo
Rus
Ġens
ĠMelbourne
ĠSurveillance
Gender
GROUND
Ġsimplified
Rub
ãĥ¡
Ġsea
Ġmurd
chnology
iper
sers
Ġacademics
321
Ġ!
iner
install
Ġdissenting
ĠUng
ĠRecep
________
iversal
Repeat
ĠSomerset
ĠJace
Ġoverdoses
Ġreadily
Ġutil
Ġdrafted
ĠMedical
ĠArbit
Ġ21
15
mington
ĠAmy
phies
qq
Mor
oub
Ġbridges
Ġgesture
ĠMY
Ġstuff
ĠHorde
Ġintegrates
ĠShared
Ġtrailed
Ġforever
earchers
Ġtrack
ĠChuck
Cow
izza
Ġcompute
Ġjihadists
075
tis
Ġtoile
Ġexpenditure
Ġintolerance
ĠGabe
Ġdefiance
ĠYin
Ġresidue
ĠIoT
osit
ĠBeasts
emon
Ġreduced
Ġemer
israel
Senior
Ġolive
zyme
ical
Ġ'.
Ġshotgun
imar
ĠConference
Ġauthenticity
api
ĠNirvana
char
ĠKumar
ĠAssociates
13
ĠOps
Ġspiritually
Ġfinite
Ġbroadcast
warning
Ġy
ĠUniv
ĠAUD
antz
ĠMane
ĠSarah
Ġpoisons
ĠHIP
Ġterminated
ĠSyndicate
Ġepilepsy
ministic
ĠCrack
urance
Ġbrains
ĠRequired
653
Ġasbestos
Ġhorizon
Ġenrolled
rics
Ġmocked
Ġ02
ĠAir
Ġprojections
Ġhazardous
ove
unity
Ġbuilders
Ġactually
ĠJD
Ġreborn
Prof
ONT
ku
rolled
Ġretailer
Ġprofile
ĠBaghdad
root
ication
ĠZy
Brother
ĠRequires
ãĥ¼ãĥĨ
Ġnervous
Ġscept
pee
Ġregularly
Ġinaccur
Ġcooled
ĠClever
ĠChen
sync
Ġguardians
ensation
mint
ĠCopy
Ġordained
Nic
Ġinfamous
Ġ334
iom
ĠPrimordial
vernight
independence
Ġoptimizations
Ġcountering
ĠMum
ĠGoods
ĠIssues
ĠFist
Ġpromoted
ĠSaudis
Ġfinely
ĠMicrosoft
Market
ĠJesse
IF
Ġhex
ortion
ĠPrism
anda
ĠMichaels
Ġpave
aggressive
ared
ĠWolfe
Ban
Ġhij
Ġarbitration
ne
Ġcontradictory
Tweet
ĠABC
Ġmitochondrial
Ġsoil
ouver
ĠLansing
Ġaddress
YouTube
Ġantioxidants
Ġagreeable
ĠZionism
wealth
Ġrepetition
Ġraiding
BY
Ġescalate
itute
reenshot
ĠOD
ĠStan
ority
gom
ĠRates
Ġ;;
Ġconsistent
`.
Ġarche
ashes
Ġ650
ĠMan
Ġ132
ĠFlav
ĠMobility
csv
rers
Ġairplane
ĠTroll
Sah
ĠCry
Ġcol
ĠRecession
ĠNova
ged
Ġunw
Ġparty
ĠSweden
Ġtotaled
ales
Greg
sim
Ġmerging
dinand
fa
Ġshoved
ĠVI
Ġcompatibility
ĠVaugh
Ġcrash
eaturing
Ġquiz
Ġdisclosed
ĠFib
Ġseismic
ĠFlorida
Ġurl
Ġ47
Ġ288
ĠOman
ĠGlass
ĠRockefeller
cht
nesium
Ġpressed
Invalid
Ġretarded
Krist
Ġhad
ĠPromise
ĠIntercept
programmer
Ġtoo
Ġsitu
ĠSerious
ĠManafort
Ġsomeone
law
Gs
!]
ĠCre
Ġrazor
ĠJag
ĠFinland
Ġauthorization
Ġjournalists
Ġfr
Ġreproductive
Ġslab
impl
Ġwidespread
æ©
arks
ĠSpaceX
Ġmetab
ĠPubMed
Weiss
Ġhemor
itch
Ġskipping
ĠBreat
opsy
Ġpop
Ġspeed
ĠRarity
ĠTile
ĠTory
while
ĠCreated
è£ħ
Ġhandwriting
scene
Ġassociation
Ġsow
Ġfocusing
ĠParticipation
ĠCanary
Marcus
ĠRh
ĠStefan
Guy
outube
def
Ġlaying
Ġcircumcision
Ġmisdem
ĠVenezuela
Ġcater
Ġphilanthrop
axis
ĠClub
010
Ġconsistency
Ġelimination
Victoria
ĠVariety
Ġstrips
ĠOsw
Ġterrible
LESS
Ġobnoxious
Ġbreaching
Ġharb
ĠAPIs
ĠSNAP
iquid
ĠUsually
ĠATL
Ġaversion
ICE
Ġrecently
Ġstrugg
Ġprototype
ORTS
ĠSpiritual
ĠNewsp
ĠStephenson
Info
Ġsupermarket
ĠCharlotte
Ġwiret
Ġbonds
RAG
Ġdecre
Ġtangible
Ġtraditional
Ġview
urat
istries
Ġ220
ISC
Ġswirling
uvian
Ġfuture
Find
ĠSurge
Ġshack
ugen
353
Foreign
ãĥķãĤ¡
Ġarrogance
Ġhesitant
ĠStyle
\\\\\\\\
Ġrapid
Ġstatist
ĠInfinity
Ġreven
Pg
ĠKats
Ġformidable
ĠCrimea
Ġpresupp
Ġcruiser
Ġclasp
Ġtossed
Ps
ĠHai
apan
ĠROS
ixture
mage
placed
ĠRand
Ġleftover
ĠSocial
Semitic
51
ful
ĠSky
Ġreplicate
Ġdiminishing
mosp
Ġharvesting
Ġraided
aldo
Ġsnapped
loads
Ġantics
ĠCardinals
Ġpreaching
MC
ĠHatt
Ġfet
anne
Ġvanity
ĠCameroon
Section
Counter
ickle
ĠDek
Hum
Ġwithheld
Ġbolst
Ġincidentally
Ġdownloads
ideon
ĠSet
ĠSovere
KB
215
Ġdying
...]
Ġapocalypse
Ġcomplexity
ãĥ©ãĥ³
Ġingest
Ġpalm
Double
orry
attach
ĠBuffy
Ġecstasy
Ġmilk
idas
initely
Ġyet
ĠElves
Ġblur
Ġoverl
618
exp
Ġcredited
ĠTheater
Ġ236
ĠEight
moving
ĠSolidGoldMagikarp
aming
Ġshovel
Ġpredatory
ĠSERVICES
Ġsteril
quartered
ĠHort
Ġliked
Ġreprinted
Ġimplements
Ġstrain
ĠMonthly
Ġhemp
Ġalters
Or
ä½ľ
ĠWAR
idth
ENC
Ġclicking
Ġencoding
Tips
ĠSax
Ġpro
ĠReferred
ĠAng
Ġincorporated
ez
rough
Ġimpacting
ash
color
Ġcasual
Ġcombatants
Ġspeeches
purpose
Bug
Ġpilgr
Ġfellow
folio
ĠLever
Ġcollapses
Such
ĠStre
ophical
ĠStephan
Ġconspiring
Ġ;)
Ġ69
Ġloaf
Ġchallenging
Ġattributed
ĠReports
itude
ĠCFL
emic
medi
Home
Ġdice
Ġscriptures
Ġpoints
ĠIsland
Ġapproached
elli
ĠLady
oup
iu
Ġzoo
Ġacids
Ġapprentice
adr
buffer
lag
ĠNarc
Ġarrows
Ġflank
epad
Ġeven
Ġpunct
Ġransom
Ġconvoy
ĠUsers
Ġmoms
ifications
Ġjunior
;;
uckle
dump
upe
Ġwoven
Ġmailed
Ġapprox
Italy
efined
Ġhealth
ĠCain
ĠWu
otomy
Ġsnatch
atl
Ġprotocol
Ġ"âĢ¦
ĠSins
exc
does
ĠãĤµãĥ¼ãĥĨãĤ£ãĥ¯ãĥ³
Slow
Ġpounded
Ġdrum
ĠLiving
unicip
extreme
Ġevaluate
Ġfluid
ĠGas
ĠApart
=-
export
cuts
path
"}],"
Ġtrailer
Ġhydraulic
Ġclipboard
Ġexcess
ĠEthiopia
with
library
Ġratification
Sky
Ġsignificantly
vironments
Pat
ĠSmooth
remote
Ġ341
ĠTech
ĠHelm
Ġfertil
ĠDep
ĠOrig
Ġfinance
Ġlocks
ĠCRE
ĠAsc
ter
Ġar
ĠEditors
Ġbin
+
uled
Ġespecially
nova
ĠLimits
rus
Ġupbeat
Ġtens
Ġende
Ġenrol
228
Ġstrip
ASY
Ġfollowing
Ġgym
Ġthese
ĠWatching
Hero
pelling
ĠToys
ĠModer
Ġexecut
Ġmiscarriage
ĠCONTIN
Standing
advert
ĠDB
304
Ġcringe
åĤ
ĠScarlett
Ġfentanyl
Ġprepares
Ġaccepting
rank
Ġski
Ġchart
ĠMarriage
Ġcompan
orship
Ġminors
ĠEnjoy
lude
Ġpolling
upt
Ġtelling
Ġnecks
Ġkind
Ġlistened
Ġplaza
ĠMacBook
STE
Ġgays
ieties
Ġadversary
Ġbraking
alone
885
ĠRun
errors
Ġcomfortable
Ġlawsuit
Ġbelow
ĠGuidelines
Christopher
ĠÅ
HK
azine
Ġwire
cell
ĠTorch
establishment
Id
igating
glass
rored
bryce
Ġcitrus
.,
ãĥı
Ġspying
Ġconsequently
!)
ĠOriental
ED
onte
Ġ146
Ġmaternal
ĠInsert
ĠPennsylvania
490
ĠByrd
ĠPagan
ĠGr
infect
ĠFurn
Ġlum
Ġorbital
west
Ġsharing
ugs
Ġthieves
Jenn
Ġcook
ĠNelson
ĠDon
Ġgreens
rael
44
Ġadult
GBT
Ġstay
favorite
ĠMattis
ĠComed
Limited
uls
Demon
Ġmotiv
HD
telling
Compat
Ġpencil
azy
ĠEnforcement
ĠSerge
Ġxml
Ġ254
Ġfrog
division
Ġresponsibilities
Fal
Ġexploit
Ġdesks
ĠDefinitions
Trust
ĠPens
ĠOption
484
ins
ĠAgent
Ġsub
requ
Ġhealed
ĠMouse
Ġensuring
centric
ĠBoy
ensable
ĠShaw
Ġconsulate
Ġsmoke
Ġboasting
ops
10 hours
ĠBland
rice
ĠMayweather
orne
fight
ĠBoss
Ġensu
CLUS
Ġthick
dating
ĠCOUN
Ġvigilante
Ġdelete
ĠTask
Ġstaring
Ġwriter
ology
ĠFey
Ġmurdering
heddar
Ġexecuting
consuming
outheast
Ġrupt
Ġabuser
atus
ĠBarrel
Ġcontests
duino
rib
Ġpremise
Ġelections
Ġ$_
044
amus
Cry
Ġhous
ELY
Ġgrandson
-|
GH
Ġshooter
ĠVideos
ĠPerez
Ġlow
Aut
Ġprevailing
vey
vers
cules
Ġtroopers
Ġbillion
ĠHeart
Ġlifespan
Music
Ġabundance
ourses
Ġlegislatures
loading
ĠFirst
Ġredevelop
gettable
Actor
ĠEuropean
ighting
ĠÂ§
oise
ĠFors
ĠRubber
Ġstrategic
GUI
Ġgenerate
Ġmissionaries
ĠWhen
Ġwill
mut
Ġhopefully
earance
Ġfists
ullivan
Ġstruggled
successfully
Ġexamining
ĠSwarm
reality
dale
ĠSz
Ġweep
Ġminimize
ĠLeon
ar
ĠHorror
ĠDou
Ġbillionaire
iple
Ġrun
Ġcounterfeit
borgh
aught
Ġvon
Ġparticular
Ur
Ġadvisors
ĠTerrit
ger
vis
Ġcertified
Ġnonsensical
Soul
ĠRon
Ġsuggestive
Ġjob
ĠDownload
Ġsqu
Ġopinions
ĠCobra
Ġparticipates
Ġring
irect
Jan
Ġscenario
ular
be
oku
ĠFreedom
Ġholder
ceans
ĠDo
ysical
official
Ġwaived
Fle
insky
pecting
Ġaerospace
seed
Ġanybody
Ġappeared
WN
ĠStruct
Ġweekday
Ġvested
Raw
Ġdeposited
Ġle
iver
Ġlog
Ġpassionately
aryn
blooded
Ġv
ĠFam
ahn
Ġsatellites
rative
iji
flation
acters
ĠDirectors
trained
Ġproblem
Ġpool
Ġpul
orde
ĠTOR
ĠCroat
Ġflirt
Ġrevenge
1016
CO
ĠReturning
Ġblockade
Ġmutation
Ġcipher
Commerce
è¦
Ġdevelopers
Ġmercury
337
00000000
ĠArnold
ãĤª
more
ĠExactly
Ġinfall
ĠByr
Ġdismay
Ġricher
Ġjaws
inda
ĠVietnamese
names
ĠPiece
Ġcounteract
Ġshadowy
technology
ãĥĥãĥĪ
ĠBuckingham
ak
Und
Ġdens
unda
oil
Settings
Ġ213
Ġsake
Ġneon
qua
Ġï¿½ï¿½ï¿½ï¿½
Ġdurable
Ġunsatisf
ĠOne
cest
ĠKau
Nothing
Ġrefers
parser
ĠInnov
Ġunable
Ġsubmarines
Ġsubstantial
Ġorganization
Ġhousing
Ġfelt
way
ĠWis
ĠBrendan
ĠSaskatchewan
ĠWon
Ġdenomination
ĠGE
ifts
ĠSuit
10
ubby
Ġrapt
ĠSapphire
Ġyellow
Ġstructured
atorium
Ġtrenches
Ġexplosions
Ġracially
Ġshowed
Ġem
Bloomberg
40
Ġgar
Ġmultitude
record
ĠPediatrics
Ġtexting
aja
awk
Ġsupply
Ġsys
Ġmodifying
ĠSchneider
ĠSouls
mods
ĠYue
Ġobj
545
ĠAV
Ġbecomes
ĠCarey
Ġaber
ĠMirage
!
Ġnod
yes
Ġbullets
Ġperipher
Ġsunrise
ersive
itz
ad
ĠKitchen
ĠEye
Ġresentment
Ġrealm
icter
uries
Ġintern
CG
ĠStuff
ĠAttribution
engers
Ġsweating
ĠInitial
Ġdownload
Ġantit
ĠGle
Ġhepat
ĠHW
ĠJill
kaya
ĠHomeless
arently
Ġmarks
ĠProjects
rid
Ġresulting
Force
Ġjo
ĠHealing
RET
Ġemphatically
hent
ĠSilent
round
Ġfour
Ġimmature
Ġfossil
ĠIan
Ġvert
ĠBUS
ĠUz
Ġrabb
Ġsubclass
uania
camp
MX
ĠRecipes
ĠPry
Ġwi
ĠMongol
Ġingred
Ġpollutants
ãĥ«
DragonMagazine
Ġscreams
ĠAssassins
anti
Ġwheels
\"
rit
Ġtainted
Ġfellowship
ĠKnown
Ġpersist
iew
Ġrejoice
Ġhorrific
ĠWestminster
Ġexplor
farm
uphem
Ġ\\
Ġausterity
osc
ĠTrave
Ġfragments
Ġmixing
Ġfirsthand
ĠEquality
carb
ĠLP
Ġkits
bara
Pet
une
Ġmaking
Ġagenda
Ġbribe
Ġwildlife
Ġoutline
Ġfreeing
whose
rog
unciation
ken
Ġcomparison
Ġmeeting
ancouver
iddler
å¤§
Ġcharities
IVER
ĠAbsent
ining
Ġrestores
Ġresume
Ġentertaining
cele
Ġprerequisite
ĠVienna
ĠRaise
Ġsmells
random
Ġproved
Ġspecial
UX
ĠNG
erness
cision
ĠRP
Ġauthority
1111
intuitive
Bah
Ġunnoticed
ĠTaylor
ecycle
Ġtin
quote
Ġtighter
ĠTamil
Ġwere
ĠReve
Ġascended
esse
Ġintact
Ġfully
Ġfictitious
Ġwriting
zza
ĠOctober
67
Ġcatering
Ġvolt
Ġlegit
Ġdefinition
Ġconject
/?
ĠBridges
ĠGAM
Ġreserves
operator
ozy
Ġcaravan
eenth
oof
Ã
Ġstrange
Ġlegitimacy
Ġfore
Ġpledges
ãĢĤ
eligible
Ġallege
Ġpalp
Ġdedicate
ĠConcepts
ĠFIGHT
nr
hetics
arcer
Ġbarrage
Ġprotr
ĠAlice
Ġceiling
illian
Lake
>(
ĠModerate
uchin
ĠTart
Ġannex
ĠBillion
ĠStarship
Imm
Ġbureaucratic
Ġesports
ocrin
President
re
ĠSupplementary
requires
438
california
ĠPent
ieri
Ġtimeout
Ġchemically
Ġadvised
<<
Ġ1934
Ġintakes
Ġcalming
``
Ġinquire
Ġchoosing
ceptive
Ġlineage
Ġtweet
Ġmotorists
Ġutilized
Ġpie
Ġspaghetti
vice
Ġkosher
Ġexit
cles
STRUCT
Ġcourts
ĠManufacturing
313
Ġopenly
Ġwhistleblowers
Ġinstructional
Ġthumbs
ĠSaturday
Purchase
Ġpatrol
illation
osher
ĠHarrington
inition
Notable
ĠWho
ĠCaval
gob
ĠCros
Ġsim
Ġgoodwill
chet
Ġ+
Ġpara
otrop
etheus
Child
ĠRack
Ġameric
ĠDefinition
resso
Ġsurgeons
Bo
ĠSenegal
zip
Ġwashing
ĠMarijuana
ĠParas
ĠElixir
ĠAval
456
USS
Ġmeasurement
ĠAsia
ĠSidd
ublic
Ġscar
Ġå
Ġdrastically
rans
Ġbankrupt
Ġfavorable
tern
ĠKT
Ġbends
igmat
attack
Ġaccuser
Ġsturdy
Ġdeform
07
ĠPor
fab
Ġfart
ĠInner
ĠHall
Ġencl
Ġsubmissions
Ġcomparable
259
ĠHL
Ġdystop
ĠHindi
Ġdisease
Ġcurls
Ġ});
aling
Ġstudent
email
ĠVengeance
Ġbellig
ĠMecca
Ġmeth
ibal
Ġambulance
Ġtile
Ġaer
Ġcitizens
Ġoutburst
Ġrecess
ĠFreeman
Ġnails
lyss
ĠJourney
system
Ġweights
Ġopens
July
Ġcarb
Ġaugmented
esy
ĠDN
Ġindependence
opening
Ġastronomical
ĠProvides
ĠMild
Ġsecretaries
Ġartist
ĠFF
Ġattract
ĠOPS
ĠWriter
887
Ġminimalist
ivated
Ġman
Ġcentres
ĠElijah
ĠNec
Ġstrat
Ġvac
adders
Ġcentrist
scribe
ĠAsgard
Ġvision
ĠIRS
Ġchef
Language
Sam
orically
chanted
487
Ġvaluation
Ġinterstate
ĠPe
ĠTwice
Ġ!!
Mult
®
Ġstreamlined
Ġfinancing
ystem
opez
cms
Ġfunding
Ġ().
ĠCBS
FX
ĠTotally
ELF
Ġvideos
Ġcow
directed
Prim
Ġsilver
ĠAbram
mercedes
Script
cd
Ġinteractive
*.
Ġfrying
Strange
colonial
Ġsidewalks
Ġmah
Ġfindings
Jerry
Frame
Ġprofitability
Independent
ĠFD
ĠLeh
drops
Ġà¤
ĠMag
Ġbehave
Ġroses
opot
ĠRite
HL
ey
ĠPuzzles
ant
Ġendorsement
Ġawe
.''
ĠJab
ĠEquipment
Ġdeserving
ooter
Ġhears
request
ĠWal
inators
ĠStress
Ġdescriptive
ī
Ġadministrators
Param
ĠFrie
ĠAnim
Muslims
struct
fter
Ġmisinformation
Ġdelightful
Ġgrinning
ĠEngineering
ili
Econom
ĠGuer
ĠDigest
ĠAlleg
blance
Bell
Ġcircus
Ġluggage
surprisingly
ĠThird
ĠMalt
Ġgolf
Ġcob
ĠLAR
Ġunderage
isson
agy
Ġcondolences
Ġemissions
ĠSE
acent
ĠNEXT
Swe
Ġstarved
Fight
ĠChomsky
Ġ90
Ġemployed
1995
ction
ĠDD
Ġareas
Ġphilosopher
cul
Ġfelon
ener
Ġover
ĠTyrann
ised
kb
ĠRaider
Gas
ĠKad
ĠDh
Ġinland
MON
component
Ġprom
Ġtired
igham
ĠWrestle
Ġmathematician
Ġfaults
ĠAgricultural
ĠLev
Ä
ĠVoice
Ġwinger
itent
Ġtoughness
Documents
Ġanimosity
ĠSHOW
Ġworm
Ġupl
ANG
hero
Ġsubstitutes
Continue
Friday
ĠAS
ĠBelt
.#
ĠNormally
Ġcrumble
Ġowl
utic
brook
ĠEly
Ġexempt
thritis
Ġweighed
argument
Ġmomentarily
Ġscholarships
ĠNou
adic
ĠJurassic
ĠPerfect
effect
ĠGym
ĠBak
Ġseries
406
Ġdecisively
AIR
Ġ***
ĠCoffin
ĠTam
vest
ĠGateway
Ġillumination
Pretty
tl
session
ternity
ĠThing
meal
zzo
iston
().
ĠBeet
ĠBesides
ĠFuel
ĠVon
ĠDinner
Ġtransact
ĠErie
(*
functional
Ġstop
Wil
ĠBahrain
Ġconsidered
ĠArmy
ĠYale
Ġpowerhouse
Ġalerted
ĠRestrict
ĠDallas
ĠVenice
ĠBriggs
Ġdefends
Ġdiscomfort
ĠMcN
Ġcompanion
Charlie
ĠNewly
Kent
ĠLim
Ġofficials
Ġobsessed
ĠPrinceton
Ġdemolished
Ġdefendants
Ġdivine
Quant
ãĤĭ
Ġjudiciary
Ġminds
Across
PL
EMOTE
ĠSuperior
lost
Ġchancellor
Out
Ġfract
Ġonline
ube
Ġairline
Ġadmire
ĠHoffman
Ġventures
Damn
hemat
Ġadminist
Ġsituated
Ġlbs
Container
ĠTouch
Ġrenting
ĠDebt
ĠCA
Ġcalculated
y
stand
Ġ71
offset
itzer
illac
ĠAthe
Ġhistories
Ġpossessing
Ġol
ĠSuns
ĠSmartstocks
Ġfilms
Ġcitizen
Boston
ai
Pe
ilion
Ġparadise
Ġeuth
Ġmessenger
Ret
Intel
athy
ĠAmit
Ġreddit
ĠKos
goal
Ġincarnation
576
ĠGard
877
Ġpsyche
ĠByz
*=-
Ġ423
ĠPoll
ĠNASA
amazon
idem
ĠKurdistan
witch
Ġdates
ON
ĠRivals
println
Eye
untarily
ŃĶ
Ġgroundbreaking
Ġaspiration
Ġremembered
Ġturbo
Ġattempted
Ġsubsidized
ont
Ġalt
zb
Ġcleansing
Ġmeats
azi
Ġtremend
aganda
ĠEU
BUG
roads
Ġmitigating
ĠPRO
Scale
ĠEDITION
Ġword
ĠTG
ĠAssass
ĠDame
ĠJulio
Ġscanners
full
Ġparsing
Click
Ġcoats
utils
Hill
Ġpi
ĠTheresa
rupt
Ġcombo
ĠStandard
Ze
ĭ
ĠChu
ĠBash
ower
Ġpounds
Ġopioids
Ġkingdoms
Ġinspector
ounced
ĠMouth
ipped
ĠDevelop
Ġbasement
Ġhog
"]=>
ĠTycoon
ĠJuliet
ĠSof
Ġ\(\
Ġunchecked
ĠCPI
ĠPriv
chal
Ã¸
climate
edded
Ġdiscusses
ĠRhino
agon
284
ãĥ¢
ts
Ġturmoil
Ġresurrect
eg
ĠBC
ĠDelay
Ġstops
Ġfur
Ġwavelengths
Ġsubjected
ĠPatterson
binary
irl
Ġpotions
locks
olkien
Ġinsisting
ĠAssuming
Fi
ĠSterling
ĠRegardless
Ġpeanuts
ĠAA
tti
unker
Rel
Ġgul
Ġinfiltr
O
Ġresc
Ġoust
ijn
auntlets
Ġcoils
Ġjihadist
Ġwhales
ĠCharges
Ġmushrooms
Ġstraight
policy
ĠHousing
ements
Ġtam
ĠHarbaugh
ĠNick
Lots
aeus
ĠAFL
ĠESV
Ġmound
ĠJavier
./
Ġmotorcycle
ĠColour
ortality
Ġbacker
ĠSicily
Ġkinetic
ĠDur
Ġphysicians
Ġribs
abase
ARY
ĠNan
Ġhur
ĠCowboy
783
uff
Ġbuildings
array
Ġhelper
Ġownership
ĠRaid
Ġconnecting
Ġtrend
utra
Ġtuberculosis
OUS
Ġdetailed
Ġpleasures
ĠParliamentary
Ġsignature
ĠOthers
Ġimmensely
hidden
Ġoutward
Ġoun
wine
Ġcrate
Ġantitrust
ĠTrailer
ĠWarren
cery
ĠGPA
Ġretaliate
ĠAuction
Ġburden
Ġparked
Ġbeating
Stage
Ġmadness
SEA
Ġdepartments
Ġbell
quet
ITED
Ġamino
Ġaction
Ġspare
RE
ĠMachines
Ġlegitimately
Ġdenominations
TM
ilaterally
Ġfocuses
anking
Ġrushes
ĠVapor
Ġaccrued
Ġcourtroom
Ġpatron
Ġsus
Ġworld
igan
Ġmusicians
VO
arez
Ġnoon
Ġstimulated
source
ĠUC
ĠEden
rast
Bulgarian
Ġheaven
Ġdelim
opausal
ĠCo
Ġsleek
ĠPop
Ġsepar
ĠDinosaur
Ġhone
Guard
ĠâĸĪ
aughter
Ġstray
Ġbullies
Ġmove
ĠMama
Ġcanoe
ĠWHO
Ġhep
ĠAnother
Ġdominate
Ġgripped
eting
Ġ107
ĠSands
ĠPEOPLE
Ġincremental
Ġgig
Ġracer
Ġracial
ĠGreenland
Ġbehaving
uploading
abit
omics
Ġbusinessman
DF
was
ĠSplash
yond
Ġserious
Ġ96
ricting
Ġworthwhile
rail
Laura
iac
Ġvic
edes
Secure
language
Ġventure
.....
ĠMEN
ems
Ġidiots
owicz
Ġmerchant
Ġproponent
ĠLow
umbling
obi
Ġsubtitles
Callback
********************************
ilitarian
772
Ě
Ġservices
ĠMous
Ġhumility
adiq
ets
ĠStevenson
ĠSinn
Ġstarter
Ġaph
Î
ĠMb
Mob
Ġcour
Building
aryl
Ġpresentations
Ġneither
ĠPot
emia
Ġ211
amas
Ġsee
Ġconstituents
ĠFoster
KY
unique
Ġsaying
addon
ogical
ĠQian
ĠTree
Ġfest
beh
swe
Ġcontrolling
Ġ"
ĠYoshi
Compan
Ġsafeguards
Ġyes
ugal
656
Ġdisenfranch
Ġconformity
eatures
Ġevidence
ĠBaghd
Ġfundamentally
Ġdisconnected
ĠNetflix
Ġinfiltrated
NAT
Ġ123
Ġsuburbs
ff
ipp
gex
Ġtissues
shadow
Regardless
325
ĠLear
essors
ĠMaking
requent
ĠStart
ĠPolo
Ġhandheld
Ġincredibly
Ġjewel
ront
ĠBand
ĠEffect
Ġcurves
Ġworkaround
vered
339
ĠPaw
ebin
Ġforming
Ġpharmac
Ġnap
Ġasleep
ĠPhotos
Ġwording
ĠCas
Ġcryptocurrencies
Ġwestern
Ġgentleman
Ġbiomass
Ġplaint
ĠMats
Ġtreasure
Desktop
Ġkarma
ĠProbably
ĠFired
Ġvaping
Ġcareg
Another
Ġsuperficial
ĠOrioles
Ġathe
ĠAuburn
KA
Ġformatted
rared
ĠOP
stead
Alt
ups
114
ĠPreferred
adows
ĠArmenia
Ġsincerity
Ġoccupying
Ġbrute
Ġherb
Mario
Ġva
BER
");
Ġgun
ĠTaiwan
Ġeveryone
Ġdisproportion
ifice
Friend
ĠChrys
ĠSiege
ĠSod
Ġtrail
Ġneural
Ġ122
ĠTeaching
broad
ĠLt
Ġhydro
ĠGalactic
nants
DP
lando
iant
Ġporch
ĠMillennials
Ġgenetically
Ġescalating
Ġarguments
iness
Ġdemolition
Ġoxygen
Ġlo
Ġmega
AME
ĠJacket
Ġrestrict
Ġgradual
style
Ġ227
ĠCrit
ĠAward
regulated
Ġsteered
Ġextrad
ICES
Detroit
eer
card
neath
Imagine
Ġguarantee
ommel
Ġapostle
America
Ġloans
Ġburgers
ving
ĠTRUE
ĠPavilion
Ġassume
mix
Ġcave
Ġoverd
ĠWorcester
ĠCNBC
ãĤ¸
Ġwarrants
Ġdilemma
ĠOlsen
Ġjudge
fortune
ĠDevOnline
ĠDelete
put
Ġjewels
Ġautumn
Ġintervals
ileaks
credit
ĠShak
ĠStead
oba
arted
Ġdisputed
ĠAmp
uni
Ġmetal
Prot
FR
Flying
Ġcopied
Ġemoji
ĠMortal
Ġoverlooking
Ġappellate
Long
Ġcapacitor
Ġnationally
Ġinspect
Ġupheld
ĠIvan
ĠDeutsche
Ġroyal
Ġdrives
ĠSure
ĠCohen
Ġutilize
ĠRosenberg
ĠDOT
Ġraid
ĠXue
AP
Ġburdens
ffer
Ġcontributors
Ġhomicides
ĠGast
Several
ĠAppropriations
ĠFahrenheit
lington
Ġinconsistency
dust
381
asha
hate
Ġcrammed
Ġfolks
ĠEVERY
cher
Ġsolar
ĠWhatever
ĠHarm
ĠPound
Ġneighbouring
Ġfunk
ĠWolver
Ġfoundations
ĠYet
ĠBonus
ĠBernardino
astern
Ġgod
ĠIncrease
Ġrounding
Ru
Ġambig
Ġactiv
Ġdim
Ġskies
speed
Ġspikes
Ġprof
duc
ĠWilmington
rather
ila
Ġconfronting
ROM
Ġpremie
ĠEzra
gary
estro
ĠConsequently
Ġefficiently
aging
itable
ĠFleet
584
Ġlegally
Ġarts
OUP
ĠNeh
Ġambassador
gate
ĠSpringer
Ġmine
Test
aer
shock
iller
Ġsmile
ĠAccessories
Ġencrypt
ĠBecame
1981
aka
ĠSin
susp
xton
ĠPatt
Wi
ammed
Ġheel
ĠLas
ĠBBQ
Ġacronym
Ġracked
nah
Already
ĠLomb
Ġlb
ĠKE
Ġabund
ĠAK
Ġkay
ĠSig
Ġselections
Ġ1700
oth
ĠRegarding
Nik
Ġflattened
763
Ġnational
ĠFlare
cru
Ul
pected
Ġbarb
Ġoffending
Ġautobi
Ġswollen
Ġrevolutions
rodu
philis
ĠTid
Ġkilled
Ġartists
Ġseminars
essage
ĠRide
Ġcock
inctions
ĠAssistant
Ġprefix
Ġprivacy
supp
oak
Ġattorneys
oti
Ġfemin
Atlanta
compl
Ġabide
Ġdictate
Ġtheoretically
ĠVentura
Ġfool
coins
vote
Static
called
objects
ĠWein
Ġweapon
major
Ġpres
Ġsponsor
YS
ĠOrchestra
Ġdiffuse
ĠOUR
ds
Ġever
ĠTA
Ġsectors
Ġgenome
ĠLu
etr
ĠSlime
Ġfact
ĠWay
px
ĠGOD
Ġdetected
witz
ĠSTAND
Ġpalpable
Ġsweaty
Ġtear
onymous
ithmetic
ĠBuilt
blast
Ġexams
ute
Ġsails
perate
Ġerr
ĠPhillies
Ġovertime
Ġcalmly
Ġâī¡
Ġintro
32
Ġcondemnation
ĠBar
olt
Ġanalys
Ġpepper
Round
FN
ĠIncluding
Ġ...
Ġseaf
Ġhomicide
pr
ĠTaliban
dos
ĠBell
Ġbright
Switch
tn
754
Ġvine
ĠGC
ascist
ĠWeight
âĻ¦
flat
rier
UV
ĠQuad
191
ĠMorty
Ġdestruction
Ġpioneer
Ġpopulate
ĠMeal
PG
ĠEveryone
ĠBald
Ġmilitant
Ġconstrued
Ġtactic
yrus
ĠShards
rencies
Ġcabinet
Ġ221
ĠBethlehem
Ġsanct
Ġslots
Ġten
Ġ158
Ġcad
ORE
ĠO
Ġtowards
ĠMichigan
ĠTrails
primary
ĠChristian
ä¸ī
Ġbetrayed
infeld
RW
ĠErin
Ġdefining
ĠBMW
ĠExcellent
little
Ġflashbacks
1200
queue
Ġneeds
ĠAmount
ĠTIT
Ġrebellious
ĠPir
addle
Ġkit
ĠTao
Ġdungeon
Ġhistoric
wr
Ġprud
Kal
IRC
Ġcornerback
Ġbureaucracy
Mania
ĠIdentified
Ġpreparing
ĠMinistry
Ġreceptor
ality
Ġbulls
514
ĠCrusader
ocular
Ġreplication
ĠSpy
Ġdeletion
icks
Ġkil
Ġ-
Ġcited
ĠSee
ĠJournal
Ġsynd
ĠSalt
afe
ĠHeath
usted
ĠGive
Ġwaits
Color
ĠJr
Ġvolunteered
ĠDepending
Ġindic
Ġlimbo
Ġfou
oldemort
Ġpedd
Ġrecorder
ĠKeynes
US
Ġvm
ãĢģ
Ġproposition
Ġfinishing
Ġ1910
github
Ġelectors
ĠVanilla
Egypt
ĠBF
ĠDigital
Important
Ġcult
nered
ĠMug
raint
kov
Ġ07
Ġcaucus
ĠHispanic
him
risk
Universal
The
ĠNYU
Apparently
orian
Pixel
Figure
Ġadolescent
ĠNEO
820
Ġtypical
ĠBuilder
id
Ġcontinued
uez
Ġ412
ising
ĠSAF
Ġanimation
ĠâĨĴ
locked
ĠRift
pps
ĠNet
Ġbrokers
Ġsubmarine
ixtape
Ġsolidarity
Pi
comments
MAL
agan
question
Ġinsurgents
bridge
merce
E
ĠSell
Ġpest
rocal
iphany
ĠVID
ch
Ġpoked
Ġbending
ĠHBO
present
Ġaccounted
OSS
rosso
lder
Ġhotter
ooo
popular
273
æĪ
ĠLiterary
ĠKet
apt
xi
Ġcharg
NN
Ġadvertisement
ĠReyn
ĠDharma
Ġcorrelate
mination
Ġ40
ĠMSI
525
Mut
1963
self
aded
Ġorder
ona
Ġformulated
Ġoperative
iation
Ġlackluster
Ġmonument
Ġbluntly
ĠDrew
ison
ĠFi
ĠFaster
lands
Ġirony
ĠWinds
ĠKap
ĠAcer
ĠSAL
Ġbiography
olin
Ġballet
Ġaxle
racuse
pler
usion
Ġinstruction
sound
Ġlabel
post
317
Ġingenuity
prof
Ġdimensional
Ġlengthy
ĠSoft
Ġtraveller
Ġtags
Ġscratching
ĠDorothy
sell
Ġamalg
ĠYouTube
ĠEmperor
Ġsmoker
ĠLum
Ġforced
Ġlazy
yt
ATED
Python
Ġoffered
ĠSpencer
Ġvalued
ĠPenguin
Ġreacted
Ġelectrons
Ġfs
ãĤ¦
constitutional
Ġtrauma
loo
ĠMSNBC
Ġantagonist
cus
Professional
ĠKickstarter
value
effic
Ġextravagant
Ġsamples
population
Ġanarchists
ĠGR
Ġposting
Nation
Prin
ocks
anan
ĠATI
ĠTotal
444
Ġpenal
Ġincidental
IENCE
ĠSpells
ĠRays
Ġpropulsion
µ
ha
Ġunsurprisingly
Ġpunch
Ġassert
ĠRequest
Ġdismal
xxxx
Ġfortress
Ġissues
Ġbehind
incinnati
ĠexternalTo
Ġhorrified
ĠBJ
vict
Ġrouters
Ġclassmates
603
ĠTrump
ĠIST
Tam
Ġcrowned
Ġreceive
ĠGust
oglu
Ġrigorous
Ġadaptations
osing
Ġessence
ĠClouds
duct
ĠJac
Ġdiscussed
ĠCompton
kok
178
Ġnewborn
ĠTalk
Ġmates
Ġ(>
Ġchalk
Ġchoose
Ġslope
iot
ĠDG
Ġibn
Ġslashed
Ġcamping
yu
uts
Ġagile
Ġtanker
Ġnipples
002
gres
reasonable
Ġneur
ĠLeBron
ĠCOUNTY
Ġreassuring
ðĿ
Tex
Ġ22
profit
uckles
Ġmed
Ġculprit
ĠOptimus
England
ĠLob
Ġbonus
Robin
Ġ$\
Ġclashed
Ġequal
ĠPuerto
Ġrebounds
ĠKids
ĠBuenos
Ġkg
peat
486
idental
amar
Ġbrig
hello
Ġdidnt
anchester
Ġdepend
Ġimmutable
ĠVol
Ġscope
Ġpairs
finished
Ġweighing
ĠApplications
ĠWind
Ġwreckage
Ġdraconian
Pol
ĠKart
ĠWheeler
Ġindividuals
Ġrecipe
Ġmushroom
ĠEllen
ig
ĠLeaving
Ġuniversities
ĠTant
Ġprojectile
ĠClaude
enged
Ġheroic
inning
Ġhistorical
ĠJonathan
heed
Ġstalking
ĠGetty
Ġengines
required
ĠInteractive
Ġrequirement
ĠMoments
Sher
174
Ġsequential
ĠArgon
ĠMedicare
Ġfollowers
ĠKey
Ġgluten
Ġ)))
Ġaspects
Ġcompulsory
Ġcamer
OUGH
acha
Ġsecretary
Ġincorporates
Ġmargins
ike
White
Ġgib
ĠAttributes
ĠFCC
Ġmonths
http
ĠLoss
Ġimplying
ĠComponents
ĠBattles
501
Ġknives
Ġfleeting
ĠUX
phys
eating
Ġsocks
ĠManchester
ĠWired
.).
ĠDay
Ġdefinite
Ġincidents
ggy
Ġcapabilities
ĠInvestor
Ġcapacities
Sleep
Ġwiping
889
Ġproclaim
amed
Rose
Ġplanning
ĠThermal
Ġpent
Ġfoam
Ġos
thought
aed
mis
L
Ġcrystall
Ġspreading
ĠGrant
Ġmobility
Ġpressuring
ĠLithuan
ĠUm
ĠCent
Ġnode
ĠKal
speech
ĠCapacity
199
link
ĠAbsolute
antam
âĢķ
884
ĠHook
ishi
Ġconsidering
aunting
ĠDecoder
Moreover
Ġpathetic
Ġcommentators
ordial
.")
Ġunsupported
ball
nor
ĠSierra
ãģ¾
host
Republic
gg
Ġprinter
Ġscars
Explore
reed
Cal
Ġloosen
Ġwhine
ĠHolt
orie
icrobial
Ġpointless
Ġbind
ãĥĹ
Ġwhence
."[
Ġassignments
ĠPlaintiff
based
Ġ9
Ġobey
Ġimped
Ġu
Ġexpire
ĠPASS
ĠActress
Ġangry
ĠPhillips
ĠMess
Ġmigrant
ĠSundays
Both
GI
786
TYPE
Eight
arm
ĠSecrets
ĠAreas
ĠSpecifications
ĠCompetitive
idity
ĠCape
Si
Those
Ġoperating
Ġsins
Ġovertly
Initial
ĠDT
ĠIF
Ġ169
Ġseals
Ġaltru
Ġepid
73
Ġlinux
hma
prototype
ĠFt
Ġoverly
Ġsince
imb
ĠPLEASE
ĠReaction
ĠIndones
Ġinterventions
Ġaxe
Ġin
ĠTon
ĠLEDs
ĠHowell
lv
Ġcylinder
Ġsignings
Ġtriggering
Ġdoomed
Ġhike
imbabwe
Ġinflammation
Ġwink
Ġssh
ĠLevin
ĠSmile
Ġapparently
phan
Ġincomes
Dream
anco
Ġconvent
allow
atible
Ġgallon
log
Ġsupervisor
ĠElaine
Ġannoun
Ġsubscript
uterte
ĠJay
braska
urtles
Ġmapped
ĠSpeak
","
Ġsid
character
ĠShia
Ġshortages
Ġ........
Helper
umping
acus
ĠClose
IRED
Ġarguing
IVERS
ustain
Ġranked
Ġlevied
club
Ġabol
Ġknee
Ġregulatory
ĠListen
atham
ĠPokemon
Jesus
ãĤ·
ĠLogan
entimes
SO
ĠBows
ict
Ġtan
Ġenslaved
Ġinsert
Ġmorphology
Ġelectrical
Ġinfringement
ĠFixed
cair
Ġfrontline
ĠFrancois
ĠAF
Ġ180
Ġimprisonment
modern
Ġstrangers
ĠLatinos
Ġindigenous
ritional
California
Ġchipset
Ġpassed
OTUS
Ġcovers
Ġjazz
Ġpenetration
ABC
Ġfel
Ġarchitect
wcs
Ġconvened
ĠIps
Ġsquid
Ġactor
',
Ġmarital
ĠQuit
ĠMik
Ġastounding
monitor
ĠChaser
Ġarrives
ĠBarclays
025
Ġ(!
Ġprejud
ĠTribe
ĠWard
2014
ĠProced
Ġwandered
Ġmoves
Ġglitches
ĠCountries
Ġbout
nas
ĠAtlantic
ĠOdin
Sales
ĠGreece
ĠExecutive
×ķ
911
Ġstates
Y
ablishment
ĠBel
Ġpleased
ĠTories
avia
Ù
Ġnegative
ĠPrison
ahar
ĠETH
hetamine
ĠâĶľâĶĢâĶĢ
Ġcunning
Ġmolecular
Ġsprinkle
Ġblindness
ufficient
ĠCONTROL
Ġdesired
Gener
Ġresidency
anism
Ġregain
Ġpronoun
Ġforwards
Ġmanaged
pit
Ġlibertarians
ĠInfluence
Ġartificially
ĠFiles
Ġom
Ġsays
Ġwheat
Ġdoctrines
obook
Ġreplied
Ġverifying
$.
icians
Ġdistraught
config
account
Ġflying
ĠSiberian
abortion
rero
Ġtransitional
Spe
Ġcongressional
ĠYor
ĠShould
ĠRemoval
Ġshielding
Ġgrapp
RPG
imi
ĠSong
Ġgenerations
ĠBill
ĠHello
Ġlearns
ĠGI
Ġinstallations
Ġshouted
ĠArmour
Ġprovinces
Products
gregation
Ġsurround
ĠLion
ĠBOOK
667
Ġtechn
Ġ25
lambda
Ġdrops
iewicz
Ġassail
Library
guyen
Ġdece
Ġfires
------
indust
ĠAnna
ĠCategory
Ġdough
Ġcoll
ibi
Ġtails
Ġnavig
Ġindustry
itations
Ġapostles
HR
Ġclassroom
foundation
only
ĠKejriwal
ĠTimes
ãĤ£
OVA
cience
Var
particip
ĠExile
ĠDEL
VE
Ġ------
Ġouts
lems
ĠKeane
Ġãģ
Ġfocal
ĠLodge
Ġnominations
Ġinjustice
Ġdebilitating
~~
ĠScene
ĠNoon
Ġ104
ocrine
Ġfolding
otive
Ġkeyboard
ĠRoe
gorithm
rise
Ġsurrogate
ĠTut
ath
oufl
Ġscr
:,
Ġfinals
Ġcrap
UFF
ĠMorg
ĠDod
ĠPoints
ĠAlter
"),
<?
Ġcolleagues
ĠHil
ĠInk
ashion
Const
Ġpoorest
Arthur
Ġwillingly
ĠVulcan
AG
ĠNavajo
China
Ge
ĠSeal
umble
Raid
Ġstrings
kish
ĠPeyton
ĠBUT
ĠHerz
ĠTrust
Ġ204
Ġbit
Ġseating
)."
oxic
Shin
ĠFurthermore
Ġ458
Ġlistener
159
think
Ġbackbone
Ġstrand
;}
Ġhomelessness
ĠCommands
ti
Ġyogurt
ness
Ġlanes
ayer
berger
iegel
Ġlived
Ġable
ifies
Ġmeters
anium
esque
ĠToday
dll
ĠãĤ
ĠUran
riger
Ġrequ
Pure
Ġretali
Ġrefunds
Ġreviewing
ĠEconom
ĠParticularly
Ġaffairs
ĠJPM
ĠAnniversary
Ġsouthern
Ġevangelical
anian
ĠCrab
Ġfilesystem
Ġpoaching
larg
hetto
ĠAlberta
Ġcourier
Ġporn
claimer
ĠFatal
ĠiTunes
Ġfacing
Ġcertainty
Ġrefreshed
Ġcripp
Ġ1956
Ç
Ġcomr
Ġscholarship
Ġclimax
Ġpriesthood
beam
Ġcivilizations
Ġadministr
ĠSpeaking
domain
Ġlinguistic
ilight
ĠFounder
Ġendings
abbage
Ġgigantic
anooga
Ġstretched
OUT
itted
Ġcrew
351
Ùİ
ĠSno
ĠWould
ĠPRE
RNA
Luckily
ĠIntrodu
ĠDebor
ĠNW
ĠStro
ĠHarold
å¦
Ġallele
344
ultimate
rider
Ġ=====
20
ethyl
Ġcameo
Ġ67
ĠShoals
ĠDouglas
Ġunclear
Har
ĠThrow
elta
ĠInvaders
Ab
ĠStrong
âĶĢâĶĢâĶĢâĶĢâĶĢâĶĢâĶĢâĶĢ
Ġexpected
ibble
stro
Ġpaperwork
ĠLA
Ġdisabling
ĠOrtiz
ĠOUT
Ġseeking
ĠKant
644
chem
Ġqueue
Ġremedy
Ġsteps
Ġreceiving
/$
changes
Ġtrustee
Nearly
ĠWH
Ġborders
Ġlvl
ASC
Ġparse
see
Connector
''.
Ġbrass
Ġtravellers
ĠCousins
ĠMcKenzie
ĠLieberman
Ġprohibits
Ġprohibited
Ġiv
yden
Ġskillet
Ġawkwardly
Ġinspir
orage
Li
ĠFill
Ġgrep
IN
Ġtrace
Ġnic
Ġspeculate
Ġpaperback
Ġwells
Ġlakh
Ġentity
809
Gate
Ġcentr
Ġoutcome
lish
ĠAM
isy
Nin
Ġqualifier
Bloom
554
ellect
Ġenlightenment
icable
Ġinvite
Neal
Ġafloat
ternal
Ġbesides
ype
ĠDub
ĠAlmighty
driving
Ġsupplying
Ġtextbooks
ĠRuss
ĠActing
Ġ2003
Ġenable
Ġdug
799
ĠChocobo
ĠDynamic
Ġinsisted
roup
ĠWhereas
J
aternal
imoto
Ġcommuting
uly
Prince
Ġflask
641
know
asser
Ġmatte
ĠHaunted
raped
Ġblended
itaire
flame
ĠTABLE
ĠShake
Ġemail
Ġfamed
Ġstrategy
ound
Ġwellbeing
Ġcriticize
Ġflags
ĠOutput
Ġshocks
CLOSE
went
ĠExplain
ocal
ĠCTRL
FIX
gly
V
Ġwarming
ĠWilkinson
ĠUN
Ġchicken
ĠGregory
created
dec
razil
Ġsewage
Ġ1963
Ġdefenseman
ĠFAM
idis
ĠInquisition
Ġ316
icism
ĠDOI
Ġchlorine
606
Ġfrontrunner
Ġsteady
582
Ġbitcoins
Ġcontacted
Ġseasonal
âĸ¬âĸ¬
Ġtoken
ĠBeck
Ġminers
ĠTommy
Multi
piracy
Ġteenagers
Ġhot
Ġ272
ĠBain
ĠTHEY
Ġfingertips
Ġretrieve
ificant
Ġwidth
±
Ġpolitics
Ġyog
Ġmanoeuv
Î¿
ĠSays
ĠBethesda
cases
ĠJu
ĠMesa
wei
Ġoper
MpServer
ĠWarning
Ġrespond
Interestingly
ĠAndroid
ĠKard
Ġscientifically
etrical
Ġcac
Height
Ġclever
More
Ġ387
vp
Ġpione
Correct
VT
Ġego
Ġinnoc
ãĥĦ
Physical
Ġinterns
Ġ184
cour
Ġembarrassment
Ġbeam
nings
igrant
Ġphenomen
ĠMohamed
Ġassumption
Ġbrake
avascript
Ġmerry
Ġ"%
Ġassaulting
Dun
Ġprovider
uity
Ġpeasants
ĠSOU
Ġfantasies
Ġfabrics
ĠEucl
ĠFrost
ĠBom
ĠFootball
Ġobstruction
opoly
Please
Ġriot
ĠguiName
625
Ġuniverse
imer
oche
Bay
?]
Ġsubsistence
1992
Ġsignalling
its
ALD
Ġlifetime
ĠNON
Ġactivate
Ġphilosophy
Enable
ĠWide
ĠBalance
Ġreactor
fect
Ġstraps
Ġgiveaway
Ġupper
Ġopt
ĠDarius
ĠFavor
ĠSTOP
ĠPortland
ĠBent
Ġtourists
ĠUndead
ĠWichita
Ġcooperation
ĠTransfer
Ġracket
twitter
Ġ1978
Ġorganizational
ĠSERV
513
het
ĠTJ
endez
Ġoats
perm
ĠPER
Ġpromotional
ľ
Ġusers
Ġparameter
ĠLeader
Ġto
Ġgoodies
Ġhill
Ġnotes
onics
ĠQi
Ġworsen
Ġpuck
ĠWORK
abies
ĠBig
owler
Ġtedious
rossover
light
Ġcollaborated
Ġsupplementary
roxy
Ġchuckle
Ġvomiting
ĠASCII
Ġwipes
ICO
Ġsprinkled
ĠMember
Ġattendance
Ġcasinos
ĠShrine
Ġcarbohyd
Ġtroublesome
Ġdemonstr
Ġforging
Combat
ĠKyoto
ris
opoulos
gh
Ġ50
Ġrural
ĠWWII
ĠEug
ĠKlopp
Ġinventory
Ġgrap
Ġimminent
ĠTowers
åı
Ġretaining
Ġteaspoon
Ġphotographed
ĠESC
Ġfeaturing
crew
yre
ĠGeral
Ġfundamental
Ġcould
Ġ1972
Ġsubstrate
ĠRabbit
Ġlarvae
ĠSwim
aughty
Ġgravity
ĠCoke
Ġcrank
Ġexcerpt
Ġblasted
Ġyoungsters
ĠScy
Kay
ĠCompliance
ĠConstantin
FER
Ġdazzling
Check
Ġinflic
Ġflour
goers
Ġaccountability
Ġannounces
Ġnormally
mining
iana
ICLE
ptroller
Ġangered
Ġplanners
Ġcooking
amp
ĠFlow
ĠDevelopment
Ġwarnings
ERA
Ġlogger
Ġdup
ĠDre
IED
ĠDrivers
ferred
ĠEarth
omez
Ġ1970
prime
ĠDirt
Ġcurv
quire
ĠSeahawks
Ġbehold
Ġthrott
ĠNarendra
ĠTort
Ġplacebo
Ġtrillions
Ġfranchise
ĠVisit
ebted
retched
Ġpresidency
Ġdefensively
asms
ĠRohing
alkyrie
Ġscored
Ġchampions
Error
ĠRunner
Ġestrogen
ISA
digy
Ġinconven
ĠMexicans
most
ĠAnime
Ġtink
unky
Ġcocoa
Ġopposing
Ac
ĠProspect
ĠBreach
ĠCult
Value
Elizabeth
ãĥ
Ġstresses
Ļ
target
GES
ignt
zilla
Ġcavern
itary
ĠS
ĠRandomRedditor
Ġreassured
Ġtransported
member
MHz
Ġharms
Ġwhirlwind
DCS
Ġwindows
ledge
Ġiron
ĠApparently
Ġphysical
MAS
ĠStick
],"
enery
Ġalbums
mediated
Ġbooklet
Ġrefund
Ġbowl
æĸ
blem
ĠPierce
ĠBry
ĠPerspective
ĠArcane
Ġoutlandish
Ġparole
Ġpredictor
Ġspirituality
REF
ĠAUT
ĠDevice
Ġauthoritarian
ĠHapp
ĠOB
Ġanecd
Ġfilings
ership
anim
chemical
Ġdictators
nosis
ĠStreaming
Ġcontradicted
Ġbottles
inate
{{
ĠÃī
ead
ĠGarrett
ĠLiv
00000
Ġch
Ġtuning
for
Ġdevastated
ĠInstr
CHO
ĠCarrier
Ġappet
ilitating
ĠStatements
Ġaccountable
Whoever
Ġtant
"},"
Ġunsuccessful
Ġaccomplishments
ĠTHEN
Sec
ĠHod
Lo
ette
google
ĠAG
Ġplanner
Ġbadges
ì
roit
ĠPro
ifier
Modern
Ġimportant
ĠDrag
ĠViper
ĠNursing
ĠMonaco
M
ĠPhilos
Ġflooding
overy
Japan
iren
powerful
becca
Ġvariables
ĠCapitals
Ġpenetrated
ĠTheo
halla
Ġ346
Ġ364
ĠUNIVERS
ĠPrevent
ĠMagnus
ĠPython
Ġanimated
isms
Circ
âĦ¢:
ĠMississippi
oine
Ġinsulin
Ġpatience
Ġamph
Ġcup
ĠDone
endered
aroo
ĠEncounter
Alice
NVIDIA
1986
Ġgrams
Ġlearned
Ġvolts
Ġseparates
Ġspend
ĠFeather
erous
rants
Ġpony
Ġsucker
ĠAlv
ĠJerusalem
Ġbang
ĠSteelers
reshold
oul
ĠLowry
iless
Ġapproximation
Shares
æŃ
ISTER
Ġslippery
ailed
ĠWildlife
ĠJake
ĠHHS
no
ĠHUM
Ġpurposes
help
Ġpulse
ĠTo
Ġcries
Ġnumbered
ĠCHO
ĠGemini
Ġorg
Ġcriticisms
Ġlabeling
ĠKaf
Ġworthless
ĠFeet
²
Ġattraction
ĠEnder
Ġãĥ
gall
Ġcrane
raham
Ġcolumnist
Ġelected
ĠFacts
ĠRamirez
Ġdiscussing
riction
ĠDeliver
ĠattRot
Ġsenators
Warren
Ġuncomfortable
onomy
Ġfuzzy
Ġhorizontal
Ġproletariat
ĠTitanium
Ġshove
Ġbanks
ival
Ġpatterns
ĠShed
Ġtreats
Ġfam
Ġmetabolism
Ġlos
cloneembedreportprint
ĠNaruto
Ġembroiled
ĠOPEN
ĠÙ
Joseph
iris
ATIVE
Ġlinen
e
Ġlavish
ĠYu
ĠLaurie
ICA
Ġrandom
ĠBeer
Ġbubbles
Ġdriving
ĠMansion
ĠPratt
natal
Ġamusing
Ġsubreddits
Ġpour
Ġinsertion
104
Br
igl
Ġmuted
ĠSpaces
ĠJian
ĠKenny
ĠCooperative
Ġhazards
ĠAfric
Ġrestrained
DS
ĠAugust
OCK
ĠFREE
Ġrestricted
ĠAlicia
Ġthinker
Ġtransmit
Ghost
Ġhust
having
Ġhabitable
:{
Ġlounge
ussen
est
ĠSecret
gat
Ġphotograph
Ġwearable
ĠCharter
SEC
Ġne
258
ĠConst
ĠHOU
bands
ier
ousing
oes
Ġpetertodd
ĠBru
Ġassemb
ĠHorn
Graphics
Ġrenewable
Ġsodium
ĠDying
Ġmanagement
Ġgon
Ġtc
Ġendors
Ġexped
Ġolig
ĠOgre
ĠExam
ĠWritten
Ġpositive
Ġinsin
ĠFactor
Ġblues
Ġbully
ĠBras
Ġsteroid
969
Ġsarcastic
affle
erences
ĠMcMahon
ouring
ĠAdvisor
Ġmsec
Ġelevate
Sharp
ĠRAID
ĠNoticed
1950
Ġ1600
Ġcouncill
Henry
ĠDex
Ġ670
Bound
ĠClara
ĠAuthent
ounces
ĠPatent
Fax
ĠEDIT
reements
ĠMarty
mem
linger
ĠDeputy
Ġwindshield
ĠPre
Ġgr
Ġintellectuals
ĠReps
woman
Unless
Ġabdominal
ĠAssoci
ĠAtkins
Ġkidnapped
onomous
=-=-
Ġnested
Ġvirtually
Ġphylogen
ĠVegas
ĠStud
Ġsupporters
ĠMarine
ĠProfession
Ġbend
Ġmorphed
ĠTomas
Ch
Mit
ĠWeapon
ĠMacedonia
ĠBere
Ġspiritual
Ġreset
ĠBug
Ġsenate
ushi
Ġbeast
Ġensemble
Ġdopamine
lia
psons
Ġguy
Ġeman
ĠGood
ĠRider
abama
Dar
Ġunnecessarily
christmas
ĠEmmy
2
Ġbackpack
Ġflakes
COMPLE
1983
Ġimplants
ĠRF
ĠNUM
Ġadjust
ille
Ġion
Ġmisogyny
ĠUnless
Ġvit
Ġtrivia
Depth
ĠMickey
Ġgrant
ĠEditor
ãĤ©
aran
umerable
username
Ġantiv
Ġpyramid
omer
Ġcognitive
Ġtones
Ġnumerical
ĠEPA
ĠVand
York
le
Ġrewriting
ĠChairman
ĠPCI
130
ution
Ġdisabled
´
Ġassure
ĠAPR
utenberg
oka
Martin
ĠClive
Ġsab
atted
Ġtame
Ġdresses
Ġtimelines
aped
ĠDevices
Indian
Ġperfected
ĠguiActiveUn
ĠVend
ht
vation
Ġhelicopters
Ġ*
Ġaround
Ġcann
Ġfast
Ġpython
Ġgardening
Ġhelp
transwoman
abol
Ġorderly
ĠRiverside
Ġmoons
esides
omaly
gdala
qt
matically
ĠLag
Ġtease
ĠOrleans
Ġvis
HI
ĠAuth
pect
Ġhatch
)?
ĠDJ
Ġprojection
Ġstockp
MH
ĠJournalism
ĠGes
Ġpoop
ĠLayout
ĠTerry
aman
Ġcommem
Ġmansion
Ġconfiguration
100
ĠTO
cks
Ġaliens
Ġpraise
Ġkid
Ġtrustworthy
Ġsleep
Ġtruthful
.:
ĠKepler
Dallas
aic
ĠHof
ĠAmer
Ġdefy
ĠREC
econom
Ġunknown
Ġthin
ĠNad
ĠShah
FACE
Ġlaw
Ġbeware
Ġjaw
Ġtheme
Ġgrains
ĠQuick
Ġinternally
Ġintox
ĠAST
ĠMesh
setup
ĠPersonality
Ġinverted
Ġdishes
Ġaesthetic
wig
Ġprecept
Ġcoincide
Ġprescription
Ġcommercials
å¾
ĠCluster
are
ĠPowers
ĠKenn
ĠBrewer
Ġbyte
Ġdred
Root
ĠProduction
stract
Ġadvertisements
Ġgazed
ĠFifty
Ġsuggestion
Ġchildren
bek
action
Ġruins
Ġdarkened
ady
Ġreapp
ĠConfeder
Ġgrew
igators
ĠFlame
ĠAbdullah
Ġequivalent
ĠTyr
Hu
Ġimaginary
Ġclosures
ĠBowie
ĠSymbol
Ġdamage
Ġreferrals
Ġworkflow
produ
pn
Ġinterpreter
Ġanalyze
ĠCrisis
Ġinequalities
Ġstreet
ĠPur
Ġcradle
Â¯Â¯Â¯Â¯Â¯Â¯Â¯Â¯
ĠLab
ĠBerg
Ġrelatively
istered
ĠBecker
ARDIS
ami
aretz
\.
Ġapost
Ġtruck
ĠConnection
ous
Ġsymbols
Ġdomains
ĠNiger
Ġmutant
opes
ĠAlbuquerque
stop
ĠKenya
Ġseventeen
ĠClojure
termin
ĠCaucasian
ĠFactors
astically
avy
ĠCatal
inv
ĠDixon
Ġdepiction
Spain
Ġ432
erc
hey
Ġproperly
ĠRyan
Ġfaithfully
ĠZheng
ĠCuba
Ġcraving
Ġhole
ringe
ĠCases
ĠStudies
ĠBase
363
plement
Ġemotions
Ġ['
ĠOPER
ĠSuzanne
ĠÂ®
Ġgauge
ĠFew
Ġeject
ĠSPI
ĠTelesc
Ġresent
Ġboarding
Ġprest
RA
ĠCi
ĠIPO
Ġcircling
Ġhorribly
Ġcompose
ĠLinux
Ġvolatility
Broad
Ġballs
ĠDuncan
ĠReggie
Ġbillboard
ĠAddress
Ġengulfed
Ġinspirational
Fer
ĠFace
Ġdistress
illus
Ġwife
ĠPan
Ġbillions
ĠCompetition
ĠLeague
Ġingenious
Ġrecoil
ĠOut
Ġdesigning
ĠICO
ĠMistress
Ġslur
ĠVince
Ġtiming
Ġbiblical
Ġopposes
tale
ĠMovies
Ġdeduct
Ġstartling
ĠSoda
Ġdetecting
ĠImplement
ĠRept
ĠPix
Sound
Work
Shipping
ĠSneak
ĠBr
ĠIsh
ĠCoup
Ġtransferred
Ġoverhead
Ġprecon
cientious
atel
1976
igrants
],
7601
ĠPicture
Layer
Dutch
GET
ĠSek
anye
acterial
NAME
rite
Ġwelcomed
zek
ĠNot
ettes
norm
Ġ750
ĠHenderson
Ġaccuses
SHA
×Ķ
Ġcondemns
Ġvariant
ĠForbidden
Handle
j
beans
dy
Ba
uckland
live
Ġfacets
->
Ġdetermin
alyst
fund
ĠBapt
oso
oven
until
Ġsprawling
GRE
Ġbona
cb
aldi
Ġrye
Four
Ġpanties
Ġadvantage
Ġtestimony
crit
ĠOrder
ĠOwl
ĠSwamp
Ġinvestigating
ĠFDA
Adapter
oustic
Ġsporting
Ġdissolved
Ġcontradiction
Ġflux
Ġbloggers
heter
Lord
Ġdelays
701
Ġtemptation
IC
ĠDriver
ĠAntonio
900
âĸĪâĸĪâĸĪâĸĪâĸĪâĸĪâĸĪâĸĪ
Ġrepositories
Ġvitality
chip
Leaks
ontent
Ġhappens
olar
Brook
Ġcontro
cos
would
ĠParm
ĠMyr
ĠLiberia
ĠRally
ĠExport
Ġpurposely
ags
Ġsignage
Cu
ĠNarr
tex
about
Sent
Ġkilling
Ġsuspicions
ĠTCU
scroll
ĠVaj
my
kas
Adds
ĠStir
control
tted
ĠMcGill
Ġrocky
ĠMoz
Ġobjectionable
fred
Throw
uilding
ĠGujar
ulation
Ġprostitutes
ivalry
Ġtestament
Let
Ġautism
ĠBeautiful
wic
ours
Ġreturn
Ġprocessor
Ġcurated
ĠStoke
ó
landers
arkin
Ġinference
eeds
recorded
Ġstock
Ġcarrots
ĠcafÃ©
brids
istani
Ġfolded
Daddy
ĠCommissioner
Ġrepression
Ġwarehouses
Ġrestrictive
Federal
Ġfeas
ĠDHS
CLUD
ĠSacred
ĠFacilities
Ġfrustrations
Ġstronger
ĠTOM
[[
Kh
Ġcatapult
Ġyelled
Ġfar
chio
K
anners
writing
Ġplaying
Ġwounded
ĠRobertson
Ġattained
Ġsealing
Ġsubdued
ĠCLR
ĠCascade
abwe
Ġvillain
ĠSR
Ġchain
mology
ĠBosnia
ĠMid
Boo
Ġthief
Ġmaker
Ġresearch
Engine
Ġslicing
Ġflavorful
ĠSpiral
Ġstumbling
Ġbeef
Ġliabilities
ĠAsylum
ĠHouston
ĠBlades
_{
imum
Ġsugars
ĠAustria
branded
Ġrenewed
Ġhills
ists
Ġrallying
Ġindoors
Alert
Ġtranspired
ĠEvery
ĠRebellion
Ġ1865
oxicity
IENT
ĠVi
ãĥ£
Ġgrandmother
Ġ287
Ġassigns
ĠPittsburgh
Ġunless
Ġshy
Ġhumour
arsh
ĠNote
hour
Ġshader
Ġmonastery
ĠDick
Ġimperative
.......
DonaldTrump
Ġdepended
ikhail
Ġpreparations
Ġforg
Ġbrutality
ĠExternal
ĠAllan
enced
ĠMaur
ĠGrind
Ġcounterpart
Ġincumb
Ġcamel
Gh
ĠMystery
show
Ġafternoon
Ġthirteen
ĠHealthy
ï¸
Ġreaction
Ġwing
puters
ĠPepsi
Ġmouth
Ġcards
ĠBurning
ĠSparkle
Ġrestaurants
Ġamulet
iles
Ġcodec
Ġroot
Ġfilters
Ġpity
igm
uss
ĠThor
Multiple
Ġludicrous
view
cellence
ĠOper
Ġdarker
Ġhump
query
Ranked
Ġsome
etric
Ġoccasions
Ġfaced
Ġrouted
ĠHollywood
Ġclimbed
Ġprior
ĠSharp
Ġ199
mingham
ĠToyota
Ġquir
pron
Ġpursuit
respons
Ġvoting
ĠBW
ĠGenocide
ĠLup
Con
flags
Ti
Ġdoubles
ĠMandatory
Ġtalking
tick
ĠFortunately
Ġcopyrighted
Ġborrowed
Ġsolid
olars
Ġfacilit
Thumbnail
ĠStrip
Ġdiagnoses
Ġdistributed
ĠScorp
Ġspiral
assies
Ġdives
ĠCanad
Hy
anical
ĠFranz
ly
Ġnarciss
ĠStephens
Ġviewership
ĠHo
ĠAlternative
Ġrebell
Ġreconstructed
Ġcyclist
bian
Ġrotating
Whe
Ġ235
rito
ĠEsc
Nat
Ġderive
Ter
ĠMV
Ġbedroom
Ġspat
Ġvessel
ĠImag
olescent
Ġweighted
Ġdrawings
Ġconvoluted
ĠHem
Ġwith
Ġtexted
ĠRole
ĠMass
RS
cients
Ġglim
als
Ġsummon
ceived
bol
ÂłÂłÂłÂłÂłÂłÂłÂłÂłÂłÂłÂłÂłÂłÂłÂł
ĠFram
asio
00007
ĠTiffany
ĠWork
solete
atom
ĠReboot
ĠMarkus
aries
Ġrespondent
omedical
ĠJuno
LES
ĠAge
maker
levision
operative
Ġrecomm
ĠClemson
ĠEntreprene
Ġshorthand
ittance
Ġglor
Ġtavern
ĠSpiegel
Ġwanted
DEBUG
Ġbore
ĠSymptoms
thirds
ĠPOLITICO
uffy
ĠBale
Ġasking
ĠFocus
ĠSau
Ġing
ĠPS
Ġanew
Users
ĠHost
ĠDestroyer
ĠNeigh
Ġthrilling
Ġinhibited
Ġfav
ureau
ĠSV
ĠKlan
Ġlunch
Ġbearing
Metro
Fr
56
à¨
ĠChaff
cover
Ġrarity
ĠPine
ĠFeeling
Afee
estones
Ġfringe
ĠSynt
ĠPCs
Ġastronomers
Ġcompete
Ġelection
ridor
Ġhabits
ĠTraditional
Ġarteries
Ġwithdrawn
Ġexchange
BSD
ĠSkydragon
Ġharder
apist
ĠChina
ĠPST
Ġinch
Ġlav
ĠArchie
Ġharmful
Ġtowels
Ø©
hews
olute
005
LR
Ġthreaded
ĠBern
Ġcounselors
ĠCold
ĠTanz
Ġmembership
Ġ1955
ĠWOM
ĠUSAF
Ġchemist
Well
Ġoutsiders
ĠRash
chapter
ĠCoffee
Ġ::
ĠStores
ĠShattered
ĠFred
Ġ116
Ġrecharge
Ġboosts
((
ĠArena
PE
ownt
ghan
Ġord
Ġ210
iard
Ġleases
Ġ440
Ġsingular
753
Ġtaller
Ġunf
Ġoverest
pin
ĠRewards
ĠDemocrat
War
ĠAngular
ĠBloom
tt
Ġpadd
Ġfoundational
ech
Ġsolder
xa
Ġinspire
Ġspirit
Ġper
Ġnorm
169
Ġresumed
Ġcredential
Ġsquash
Ġpools
Winner
lad
ĠDale
ĠRoad
ĠMonday
Ġhelmet
Ġdownloaded
Ġpurity
Ġcirc
ĠOW
Ġutopian
Ġsecretive
Anyone
otos
ĠLies
Ġunwitting
Direct
Ġfortunately
Ġ980
ĠGree
Ġtricks
Ġcreations
Ġbrokerage
ĠLicensed
Ġmutated
istas
Ġpick
Ġoption
plus
ĠAirl
Ġcongress
Care
ethy
Ġbows
Ġnominal
ĠDaylight
uart
Ðµ
Ġlimitless
Ġmosaic
Ġsparkling
ĠCarrie
ATURES
ĠBecause
401
127
Ġblogs
ĠActivate
Fa
scill
Ġnews
ĠKC
fw
Ġart
Ġburg
Related
Getting
fare
Ġattractive
ako
ĠIndonesian
Ġwitchcraft
Ġengine
Trade
Ġfrightened
Ġmaxim
ĠCognitive
Ġcried
ĠPOV
Ġmanag
support
Ġtipped
Ġbrutally
ifest
158
Frag
ĠSDK
ĠPil
Applic
ĠSQL
Ġportable
teen
Ġdarkest
whatever
rolog
Ġlyn
ĠLarry
Ġinfants
Ġtransmitted
ĊĊ
ĠPai
Ġcomprehens
ĠGears
''
Ġentrepreneur
Summer
mother
Ġadvertisers
Ġrad
Ġchimpanzees
Ġ#
itar
Ġreproduction
Ġskip
Nobody
Ġoutfit
Ġadjoining
ĠLook
IME
uctions
Ġconsumes
135
ĠAlert
ĠStill
Ġsalsa
ĠJam
Ġcumbersome
Full
riv
ĠPhoto
Ġsore
inals
Ġingested
ocytes
ĠBoard
overs
ĠRik
Ġenerg
ators
Ġdemanded
work
Ġgrand
Ġtrick
Ġknees
ookie
Ġunseen
ĠOnion
å½
Ġuncons
Ġhamstring
Ġmuse
Stan
hu
Ġlobbying
Ġdesolate
Ġfuller
Ġregional
Ġproxy
Ġpitcher
ĠHew
ĠCogn
gold
Ġinnate
FILE
ĠShant
ĠCome
Friends
Ġdr
CHAT
Optional
ĠCareer
Ġsubversive
ĠMex
Ġretrie
Ġ1024
ĠAtari
Ġtraits
Ġexplode
Ġillicit
ĠHousehold
Ġhunt
paid
pez
Ġdual
Ġarbitrary
za
Ġpersever
ĠBruno
Ġcorresponds
ĠIrish
ĠOrders
Ġentail
acky
Ġmunicipal
ickers
Ġï¿½ï¿½ï¿½ï¿½ï¿½ï¿½ï¿½ï¿½
Ġopacity
Ġlowers
ĠPsychic
Ġscaven
Ġsquat
Ġdebug
Ġfi
ieve
Model
Ġopponents
Ġtakeaway
ĠNess
Ġthanked
mort
ivers
oph
Ġmorning
Ġpecul
ĠGolem
Ġabolished
ĠThough
Ġhorses
cci
ĠDefender
Ġintim
ghost
Ġintake
ĠMothers
Ġenrollment
ĠContracts
ĠNode
ĠIX
ences
Ġstrikingly
Ġslaughtered
iasm
Ġdesigner
ĠChiefs
©¶æ
Ġprovince
ĠLuk
Ġcongreg
ĠjQuery
'.
Ġdigs
ĠComet
Ġranks
Ġkissed
review
Ġexpensive
gen
voc
Ġcuff
ĠVolt
ĠEconomy
cong
ry
How
ĠDragons
Ġadvancements
640
Ġsatisfy
good
mons
ĠCommittees
rawdownload
Ġdismantle
Ġencrypted
148
Ġmold
ĠSHE
Ġen
Ġpasta
Ġrespectively
Ġow
Ġalcoholic
Ġhospitalized
Ġhold
Court
Ġvirgin
Ġsuspected
illa
uations
ĠVirtual
Ġvalidation
Ġforwarding
Offline
ĠÎ¼g
Ġso
434
liber
ocative
Ġstrives
Ġinject
Ġenvironment
Ġbombings
Ġwealthiest
Ġurine
static
Ġdesserts
ĠZap
blow
ĠCurry
Ġsit
Ġpilot
Ġshaped
364
ĠSheikh
ĠIgn
atsuki
ĠMagicka
Ġclient
sid
Ġtriumphant
ãĥ³ãĤ¸
Ġmetrics
acerb
FIL
ĠFounders
Ġclitor
Ġinstructor
relations
ĠWrestling
ĠSilence
ĠTolkien
ĠHit
Ġrankings
Ġ302
1000
ĠConce
2000
"...
las vegas
ĠScorpion
ITIES
ĠDepot
angan
Ġuploading
Ġrobots
Fan
Arc
Ġswarm
uld
Ġnutrients
ĠTwitch
Ġpurchases
Ġmakes
Ġindul
Ġns
ĠImperium
Ġbi
ĠHussain
Steven
Ġrepro
actually
Ġalarm
ĠKILL
ched
comm
mania
Ġburn
Ġtul
failed
book
Scot
ĠSH
Ġsubmerged
---------
Ġbloom
Ġinsulated
",
FML
Ġ-----
Ġlore
areth
steen
Ġneglected
Ġdub
ĠMeadow
Park
411
ĠExplicit
hene
Ġ117
SourceFile
Meg
urring
Ġshell
Ġperf
Ġproperties
Reason
bleacher
Bind
Ġairliner
ĠMAP
ĠTHANK
mbudsman
ĠâĢ
Ġhairc
x
highest
Ġreliance
ĠHyd
ĠWester
Ġapplications
verted
ĠCris
otional
Q
Ġcrop
tiktoker
UTE
Ġcabal
Ġcops
Ġconcealed
Ġholster
Ġcant
ĠPy
Ġprosecutor
Ġgit
ĠFAQ
Ġinsurgency
ii
Ġstereotypes
ĠAllah
ĠTemplate
ĠMVP
Cole
Ġfanatic
Ġinjecting
ĠNi
Ġcome
ĠKir
ĠStreets
Ġsleeper
alks
oral
before
EStream
Ġstood
ĠMale
ĠLoren
Ġcran
ĠPriebus
GE
ĠDustin
soccer
ĠJudy
Benef
Ġlang
Jr
podcast
ĠGenerally
uffed
onga
Ġtotals
ĠHaw
Ġdisrupted
538
??
Host
Ġparap
Ġpropelled
ĠValve
Never
Ġlaun
bash
Ġrested
ĠCyn
igo
ĠEngel
ĠShapiro
Ġnovel
Ġremove
Ġratified
ĠPOST
BIT
ĠWordPress
Ġforgiveness
ĠVenezuelan
Ġinfusion
ĠSubway
Ġhelicopter
ĠACPI
Ġbrightness
Ġthoughtful
Ġheavily
given
ĠVictoria
ĠDiver
["
ĠImmediately
ĠImprovements
oyer
ÃĥÃĤÃĥÃĤÃĥÃĤÃĥÃĤÃĥÃĤÃĥÃĤÃĥÃĤÃĥÃĤÃĥÃĤÃĥÃĤÃĥÃĤÃĥÃĤÃĥÃĤÃĥÃĤÃĥÃĤÃĥÃĤ
Ġ186
ĠWyn
ĠTCP
Ġabove
ĠFine
Ġplaces
Ġother
ĠGabriel
Ġdescrib
archive
Ġprosec
ĠContribut
Extreme
Ġ289
Ġdifficulty
ĠWol
when
ĠMalik
ĠGuest
Ġsite
ä¸į
Ġ140
ĠHedge
ĠBenny
powers
ande
Susan
ĠHEAD
morning
Ġessentially
âĨĳ
Pinterest
Mess
Ġ315
ĠAlger
perors
orical
ĠChristianity
ĠApple
ĠChest
Ġinjunction
Maker
Ġbreakthrough
Ġ1951
ĠPrompt
Ġbegging
009
ĠBeta
Ġbusiest
Ġwonder
Ġdos
Ġdisav
Fly
Ġarch
Ġsteadily
Ġshortest
Ġmasse
Ġtextile
atmeal
Ġsmir
bee
strument
Ġeternal
VL
Ġunfit
Ġgirlfriend
ĠKh
ĠClaudia
Ġerected
engeance
Ġlim
ĠJindal
Ġexerted
Chelsea
ails
Ġbaking
Ġcoaches
Ġfitness
ĠMend
Type
ĠCompleted
ĠPassed
Ġreviewers
Ġrepercussions
Ġworrisome
Ġlenders
ĠMicro
doc
iona
ĠQuint
ĠPwr
rugged
Ġbarking
lÃ©
Ġpromotions
ĠPsychiatry
Ġpane
ĠTips
adays
ĠVillage
pared
Ġcutoff
Mission
Ġliquids
ĠIsles
422
?",
igsaw
Ġvaluable
ĠAttempt
Pen
ĠBooth
ĠHallow
exist
ĠOsama
Ġconfidently
ĠSlash
Ġexplicit
ĠFamous
Ġhug
isively
ĠReset
Ġaccusations
Ġclearer
tails
trap
Ġcomposure
Ġclin
Ġintrodu
ĠSonic
Resp
Ġcongestion
acons
uple
Ġwithdraw
ĠLC
ĠUh
idon
ustom
Person
ĠBooker
Ġuntil
Ġcousin
Ġworkouts
apeshifter
Canada
Ġrune
Ġrate
Ġbible
Ġanalyst
ighters
ĠMinotaur
arak
Ġcontains
wind
Ġiteration
Ġcontenders
Ġ?)
Ġaccessory
Ġinherently
Ġencouragement
Ġunint
quickShipAvailable
ĠBerlin
Neil
ĠHappiness
ĠRedd
seys
Ġcontroversial
shire
Ġtransmissions
366
Ġmillionaires
Ġwild
Ġdummy
Ġoptic
ĠRih
Kyle
Ġmovies
Ġdu
Push
Ġsadly
_-
leon
ĠNile
Ġgarn
Ġbrid
Ġobjected
spir
managed
Ġmeas
ĠCannot
Ġweave
ĠMorsi
inance
Ġramifications
Ġisolate
Love
Ġdudes
ĠGovernor
ĠDemonic
Ġ276
ĠMarcos
embed
ĠAwesome
Ġimm
hematically
ĠOH
function
ian
ĠRegister
ĠCrest
ilated
Ġjudgement
Ġcurly
ĠDisapp
Ġsymm
Ġhepatitis
ĠCliff
Hat
ĠFuller
Ġinterfered
ĠKee
imposed
ĠDeb
Ġteam
Ġmodes
Ġnob
ĠJesuit
adia
Ġfleets
ĠBud
ĠTimber
Ġorn
ĠKazakhstan
Ġhidden
Ġoxide
Ġforestry
Ġenclosed
ĠFeatured
Ġremembers
powered
Ġbricks
ĠForth
Ġ555
Ġcreators
mitt
eled
Ġrestart
Govern
JC
body
oenix
Border
tro
Prem
ĠViolet
ĠUg
Ġtacit
Ġticket
ilus
ĠEagles
Natural
ause
Ġ366
Ġinsensitive
Ġdeciding
etermined
tons
ĠAnimals
Ġshuttle
EY
Ġpanel
Ġirresponsible
Ġanswering
Ġorth
amd
Ġâī
Ġsurvivor
ĠSandwich
ĠViz
Ġans
Ġsequest
ĠPet
Ġthreats
arrass
ĠMilo
ĠFreed
Ġfade
Ġgrabbing
ĠCere
Ġcompiler
Ġeviction
ĠAmtrak
irsch
Ġbrands
charges
NOTE
osures
Ġaspirations
Ġext
ĠRowling
Ġ1993
Ġsprites
lling
Ġslave
Ġlitter
Ġcomplete
load
Ġrecruiting
Ġoneself
Ġdisson
ĠHunting
ĠCALL
Ġdisgruntled
Ġenemies
Ġjohn
hart
Ġsweater
series
ĠHenry
ĠAnton
scl
PLE
509
Ġ266
Ġ1968
Ġaquarium
Ġcampaigners
ĠCourier
Ġwearer
Ġgossip
Ġexagger
Ġrocks
ĠCameron
visory
Ġglide
allas
Ġdress
roller
Ġinvis
ĠBabel
CTV
Ġpersonality
Ġsings
ĠWhitman
Ġmassage
makers
evil
,,,,,,,,
Ġshameless
ĠChattanooga
Ġset
\
ãĥ¼ãĥ
uddy
Ġincreasingly
tering
Ġconst
ignty
Ġdetonated
Ġremnant
ĠMcCarthy
ĠLub
Ġminority
Ġseventy
ĠUri
kens
Ġapply
ĠSqu
Ġsink
Ġ166
Official
Ġrecreation
ĠMiddles
bp
ĠMcC
ajo
ĠSelected
ĠDunham
ĠDonn
ĠNEW
ĠFed
Policy
Ġcostly
method
Hart
ĠReleases
Ġ342
ĠPenet
Amazing
ĠPearl
Ġcereal
Ġluc
ĠVolunte
Ġstudying
played
ĠCorbyn
ĠClarkson
ĠReserv
Ġintercourse
rifice
Ġcritic
ĠInc
Ġ<
Ġleaping
Buy
oe
itatively
Ã»
rose
Paul
Ġfruit
leg
Ġ<@
Ġeducated
wrapper
VERTIS
KO
Ġtsp
Ġhandcuffed
Ġon
Ġponies
Manchester
FORM
Ġvibration
Ġparticipants
ĠDund
Ġturbulence
Ġstimulates
Ġdestroyer
ĠProvince
notations
PS
Ġshelling
Ã¯
ĠCool
Ġlitres
ĠPad
Ġway
arate
Ġchapel
adish
Ġsincere
Ġplumbing
Quotes
Ġopenings
ĠSPD
alam
Ġdowngrade
ista
ĠGutenberg
Get
ĠISP
Ġdebunked
Ġcaramel
ox
mitter
Ġspirits
ĠAdmin
ĠBackground
Ġhorizontally
sylv
namese
ANGE
Contact
Ġtents
Ġpresiding
ĠOlivier
Ġchief
ĠRetirement
edIn
Wind
Ġ317
Ġfeminist
ĠJanet
enne
ĠSwed
Ġseizing
Ġbookmark
ĠDifficulty
conduct
Ġ357
ĠBag
ĠMarg
ĠSubjects
ĠTony
Ġabsorb
Ġsquirrel
Ġcontraceptive
ĠElement
Ġfiner
Ġ1908
ĠactionGroup
ĠMercer
ĠMun
Â±
Ġinfield
ĠSpan
Ġcorporation
Ġforget
Ġpromotes
Ġsubstances
ĠBIOS
Ġpolymer
Ġissue
ĠLetters
Ġtherapists
ousands
ĠAway
Ġneedy
ĠHerb
ĠMoreno
Ġawoke
Ġded
LY
Ġprolong
Ġyears
ilver
atibility
ĠYiannopoulos
557
cer
Ġglorious
ledged
Reb
ĠMMA
Ġunrelated
ĠFlor
Ġthink
Ġfinalists
Ġspending
Ġcontrast
ĠSymphony
rust
Ġsilk
Mini
Ġtargeted
Connell
Ġwillingness
Ġtermination
aws
Ġappreciate
Ġcontroversies
Ġdecreased
Ġverbal
Ġglare
Rober
ature
Ġdetectives
ounty
ĠVariant
Weapons
Asset
ĠCurrency
ĠDirectory
Ġpinnacle
Ġrelapse
ĠHarley
Ġunbiased
enny
Ġfines
Ġdisp
Ġnum
Ġdifference
Ġsexist
clad
ĠKle
estine
ãĤ±
Ġpopped
Ġlack
bright
radio
ĠDowns
Ġassigned
pad
ĠFire
Clar
Ġendangered
Ġdiffer
ĠBur
++)
ĠLearned
Develop
gnu
ĠStore
Ġbaskets
Ġvictim
Ġrelations
Ġsecondary
Ġkeep
Ġvul
fire
newest
ardy
Ġincons
Ġhalftime
ù
ĠOld
Ġcoded
Ġslated
bledon
save
Ġtrustees
ĠN
escap
Ġfoot
Ġstakeholders
âĢĶ-
Ġshowc
Ġburnt
Ġesteemed
Ġchloride
ĠSTART
Ġkicking
Ġsincerely
Welcome
Ġcoordinating
ĠKirby
ĠRV
Ġblockchain
Ġconfusing
Ġbeneficiary
ĠPosts
ran
ĠProtestants
owntown
ĠEthics
Ġtobacco
Ġsaves
ĠMondays
Ġpir
ĠDickinson
Ġ{}
Ġperenn
Ġstopped
ĠPlayer
Ġblew
Ġbrowse
Project
Ġtraders
ĠWarrant
ippery
Ġabuse
Ġket
iosyn
"[
ãģĹ
Ġlightning
Ġsensors
Ġprint
ĠColors
ĠPierre
ios
Ġstruggles
atching
Ġextent
ĠBog
BILITY
ĠVerd
ĠFeldman
Ġwalked
lifting
ĠForrest
Ġopaque
Cube
ĠEternity
Ġdecisive
ĠRestore
Ġsaid
washer
Ġphotoc
Ġ).
Ġinvisible
Ġpractition
402
ĠRG
ĠBlack
'';
ag
Ġwarranty
Ġthemed
ilian
ĠPub
case
ĠLOVE
Ġembodied
Ġinterpreted
Ġintuitive
KC
Smith
Ġwrapper
ĠBh
cgi
emphasis
driver
Ġovere
Ġprepared
Ġfooth
merga
ãĥ¼ãĤ¯
Ġhouseholds
Ġoffer
ĠWow
Ġintimidation
Rating
Ġcultivated
940
Ġhangs
Ġtherapy
cle
ĠGUI
tie
ĠTotem
Ġregisters
ĠBolshe
Ġusur
govern
Ġcohesive
ĠERA
Ġprecedent
Ġtwilight
ridges
ĠDIS
ĠJM
luster
antis
ĠLadies
ĠLLP
Ġ(#
igil
Ġsixty
Ġlearn
Sept
ĠShard
ĠStarter
bit
CLASS
authorized
ĠPost
sample
otic
ĠElizabeth
ĠWildcats
Ġnegligible
Ġillustrious
Ġbloated
iga
Ġprescriptions
ĠTiny
Gene
response
Ġdiscredited
Ġseed
ĠBour
Ġhist
Ġogre
Ġpiracy
Ġindividuality
ĠMeans
Ġlaid
Node
endo
Ġblocking
ĠGolden
Hold
Ġscene
Ġdestinations
weight
rt
ĠVan
Ġinvoice
Cons
Ġdunk
Ġconcert
Ġfurnish
ĠPriority
ĠMonetary
267
Ġprogressively
Ġantigen
Ġ63
Ġscrolls
ĠPersonnel
ĠCos
Ġlimitations
å¤
Ġfarmland
727
Ġmoderation
mentation
Ġstumble
Ġ512
ĠLIB
ĠCombine
ĠIllustrated
Unlike
âĢĵâĢĵ
Ġchecks
Ġsubjective
ĠSurrey
Ġdocking
ĠEll
wagon
Ġshout
oug
Ġmobs
Ġpretended
ĠGab
Ġexperiments
Ġsubmer
ĠEdwards
ĠiP
se
Ġerotic
ÏĢ
Ġcontributed
May
ĠDiabetes
Ġvividly
à¸
Ġhut
Ġshalt
Ġmog
512
ractical
Ġconsent
ĠThoughts
371
Ġpush
Ġleapt
ĠBritann
Ġdors
Ġi
Ġat
ĠSEC
urion
ĠAlban
raught
Ġcontractors
AY
]"
Ġpreferable
ĠCaleb
Ġshorts
TABLE
ĠPublications
ĠGrammy
ĠWes
Ġsprings
ĠLeeds
Ġsensitivity
girls
protein
uffs
Ġspoken
ĠMaximum
Ġdeny
aquin
ĠMOT
ĠâĪ
ĠST
ĠAssad
Ġridiculous
Rather
ĠCLS
ĠMalta
Ġboulder
etimes
element
Ġgunman
ĠGuatem
Ġcloves
handed
."
Ġwasteland
ĠSaturdays
ĠIntroduction
Ġmono
Ġstarving
Ġblessings
itialized
Ġcompensate
metry
Ġsimple
Ġpredictive
itational
ĠArgentine
ĠSherman
ãģ®å
ivating
Ġmicrobial
ĠClassical
ovych
Ġtroubling
Ġevolving
Ġcigar
ĠMechanics
Ġmanifesto
ĠAmericans
ĠPV
chrome
ĠPride
ĠLucifer
packs
Terror
ĠZhou
Ġstyle
Ġinitiate
elong
hawks
Ġonwards
Ġyak
urrencies
grounds
Ġcredit
Ġaboriginal
ĠWhole
Ġlongevity
ĠEdwin
Ġpt
æĥ
ĠTaiwanese
Ġcoales
ĠVehicles
Ġcer
123
right
erion
Ġguessed
ĠIssa
Ġverse
Ġconn
uda
\\\\
Ġincreased
ĠHip
Sarah
ĠConway
Ġruby
Ġorganised
ĠDeal
ĠTucker
Ġcarbohydrates
ĠMTA
ĠAllies
tnc
itimate
ĠContains
Ġbirthday
Ġdepressing
Ġalternatively
Ġarcs
Ġhue
tel
Ġhomer
vere
Ġabyss
INE
Knowing
ocracy
Ġpilots
Ġpretending
Ġallowing
Ġcontempt
umption
EDIT
Ġeligibility
ĠBonds
ĠRanger
Ġbod
iterator
Ġvisions
ĠMarian
avor
Ġgamer
Ġgrowth
icecream
ĠIzzy
ĠNewman
waters
Ġfemales
ĠAging
ĠTrance
ÑĤ
Ġoverflowing
Ġloyalty
CBS
Ġpolyg
ĠAccordingly
holder
unin
ĠLGBTQ
Ġgrievances
Americans
UB
Ġclinging
Ġple
ĠNiÃ±o
Atl
ĠDUI
Ġwhen
ĠClim
Ġmath
Details
picked
manager
hub
728
Minnesota
ĠASS
Ġshelves
Ġtrainers
ĠFM
Ġbigot
Ġcc
Empty
Ġprocure
marriage
font
Ġscratches
Ġusability
iphate
ĠLikes
ĠWesley
Ġconvicted
Ġabandon
Ġregex
Ġyielded
Ġrooft
ĠColossus
Ġmemorable
ĠSomebody
Master
Ġnuance
Ġworks
Ġwalking
endants
Ġmarsh
Ġtouchscreen
ĠII
Ġfare
ÄŁ
Ġanimations
apego
Ġclips
ĠDavid
ĠFormation
Ġwent
Ġrunoff
û
Acc
ĠSafe
expl
quarter
Ġfraction
Tel
.),
ĠConnecticut
Ġdeputies
Ġsci
Ġmercenaries
Ġreigning
Ġresembles
cknowled
Ġjud
ATURE
Oil
cheon
Ġdeep
ortunate
ocaust
Ġlord
ential
Ġtenets
Ġclan
issued
Ġinitialize
Ġadherence
ĠNicotine
Ġreprim
ington
Ġelecting
Ġunpublished
ĠDew
Ġtom
Ġmillions
WINDOWS
ĠHoms
Ġplac
Ġinconsist
ĠFern
ĠSul
ergus
Ġgather
ĠSabb
Ġdifferent
Ġmodem
ĠAcademy
Ġorganis
Ġsequence
qqa
Ġorche
Ġinhibits
airport
Ġbreaches
ĠChi
ĠEar
Images
Farm
ĠSov
ĠVeteran
place
Ġsung
oin
ĠMAD
ĠPike
ship
ĠReloaded
3000
Characters
Ġoste
Ġshores
6000
ĠAngola
Ġhormones
ĠComposite
Ġfestival
ints
ĠLinkedIn
ĠPigs
Ġbc
ĠSunset
antle
ĠDelta
Ġscorer
riages
Ġdou
Ġlinebacker
Ġextras
Ġbeach
Ġdispos
pun
THING
Ġintrig
1974
Ġclassics
Information
ĠMalaysia
ĠRobotics
Ġtough
ĠBun
510
Min
Ġinver
ombo
Ġowner
Club
ĠQu
ĠAboriginal
Ġmagnification
Ġdefences
clusively
ng
ĠDar
New
Aid
codes
ĠUID
Ġestablishing
hawk
ĠBoe
ĠHearthstone
Ġhaw
ia
sburgh
peed
Ide
eous
Ġpays
ĠSwift
Ġadrenaline
Ġbackstory
Ġroared
Ġ185
Ġprojecting
Ġdecad
Ġfielder
Ġcomics
Ġpole
ĠLooking
ĠStrikes
Ġolder
TPP
Ġtribes
ham
></
rou
ĠPyr
ĠAccounts
ĠDot
Ġ356
ĠPeter
Ġstopp
Ġcoalition
Ġtechnically
esville
Ġevoke
Ġinvaders
ĠAdding
Ġextends
Ġbilled
Ġthirst
Ġfavorably
Attorney
hya
ĠEuro
Ġbadly
ISION
StreamerBot
Ġthesis
ĠStrength
ĠLGBT
Ġcautious
Ġvalves
Ġrather
ĠProtection
lightly
Ġencro
ĠNation
Ġstyling
ĠQuestion
lang
Ġinfiltrate
Ġrehearsal
ĠCouncil
afi
ĠUnivers
Ġcrim
ĠAppl
733
ceiver
Ġunborn
ĠLords
Ġhiking
ĠRegener
Ġbou
Ġiii
ĠMoy
Aust
Ġpact
Ö¼
chief
Ġcre
Mc
Ġpee
Ġwhites
icky
ĠElsa
caps
cius
augh
Ġlyr
Ġgardens
ĠBlu
Ġroutes
Ġscrap
WIND
Ġlet
125
pictured
Moore
Ġ260
ĠFlore
387
verning
åį
Ġcomrades
Ġclaiming
Ġmarijuana
ĠTarant
ĠBaylor
Â²
Ġ2
ĠResult
Ġanalges
anchez
Ġspicy
Ġindicates
Ġwarns
Teen
Ġeras
Ġinteracts
Ġclustered
Ġloves
Ġbuddy
Ġcounterterrorism
Ġsigning
ĠTribune
986
Ġtaxable
hell
Ġtransc
Ġ--------------------------------
acted
ĠSheldon
Ġattire
otally
Ġsolidly
ĠExpansion
50
ĠChecking
Ġacceler
Ġnegotiating
ĠAdvantage
DM
âĸĦ
Ġyard
ĠAustrian
ĠWestbrook
Ġneighb
%)
Ġregardless
Ġmidnight
m
ĠAustin
Ġremembrance
Ġaudience
NECT
Ġharass
Missing
sure
Ġcomputers
Ġlatter
ĠDraco
ĠAvenue
Ġrevise
Ġmust
Near
ĠDollars
Ġhumanity
Ġstructure
Ġmerged
Ġabl
Ġgunfire
Ġrobbery
Ġthreshold
blade
Ġqualitative
ĠWARRANT
ĠStraw
Ġtweaks
paste
Ġrighteous
Ġswallow
versible
Ġfloors
oma
Ġenhances
ĠExt
Ġtruly
ĠFenrir
ĠMon
ĠBones
ĠArbor
jc
Ġultraviolet
ĠGOOD
Ġbaffled
ĠAmid
BAT
ĠJem
ĠBeat
ĠBay
Ġmaximizing
ĠCentOS
Ġrenovations
ĠTempl
swick
Ġspir
ĠProfessor
Ġsignals
Ġlaz
Ġdepicted
ĠAce
Ġinciner
ĠSach
ĠLuthor
Ġemphasis
ĠElastic
movie
Sports
Ġlatitude
Seeing
yne
Ġfrust
resistant
ricular
ĠBild
Ġhugely
haul
Ġdisapprove
ivist
Ġreliant
Ġmaize
NJ
Often
Ġborderline
Ġunimaginable
ĠGerrard
Ġresponds
Kim
Ġfasc
Ġfeudal
Foot
Ġpaying
anders
surv
ĠBliss
ĠLod
anguage
ĠDal
ĠWare
ĠAutom
ĠMeat
Ġnerv
tools
Ġ+---
azel
slice
gain
Keith
ĠGlory
Ġsyrup
ĠABS
ĠCzech
Ġpresets
Ġsett
Ġgithub
avior
aid
ĠUsername
Ġmetric
ĠVigil
Ġvaccinations
assador
ĠÎ±
Ġscalp
Ġangled
ĠRove
beer
ĠColl
matical
ĠWonders
Ġgallery
Ġdissatisf
KK
ĠRemove
sterdam
galitarian
gae
Ġbulky
808
Ġtoolbar
Ġtweaked
Ġii
CW
ams
Ġconfinement
Ġentangled
ĠZur
which
Ġmeaningful
Ġsqueeze
Ġjersey
72
Ġmidterm
Ġ('
anut
Ġtreating
Ġunprotected
ĠBigfoot
ĠM
ĠSunshine
ĠShop
Ġnationals
Ġentitlement
endment
Ġspecials
gm
aled
ĠHill
ĠChild
Ġclue
LER
ĠRoy
Ġ160
ĠTob
grade
Ġemploys
ĠEff
OOL
must
Ġsimul
Scar
Ġfatal
ĠCCP
/
Ġpedest
bury
aura
ĠAtomic
ĠStarcraft
ĠHorus
oren
ĠFrem
Ġbait
216
Ġamplified
Ġ415
Ġbusinessmen
upuncture
ansion
-->
Ġcellul
Ġexecute
ĠGrants
ĠPats
Ġpatient
ĠTyphoon
Ġhorizont
Ġinvari
Ju
ĠShanahan
Ġunwilling
ĠMilitia
ĠBennett
ĠFitz
Ġsupplies
Mobile
itated
Ġ136
Ġpropensity
249
Ġsort
ĠChron
Ġ46
Ġsynchronized
ĠChristmas
Ġthrew
killers
Ġreiterate
selage
Ġbikini
ĠDuck
âķ
Ġmechanism
bender
ðŁĳ
Ġancestors
Ġspins
bor
groups
Ġcontacts
Ġvisits
Ġouter
Ġassailants
Ġhorny
á¹
ĠFront
Ġasserting
Ġunreal
ĠCorpse
Ġcircumst
hattan
Ġinterrupted
ores
Ġwithdrawal
Ġlimit
018
Ġcrow
Ġvex
Ġwander
Ġleap
tested
ĠBauer
ĠReading
ĠCastle
ĠIbn
Ġmirrored
Ġunstable
Ġplight
ĠJelly
ĠPoo
transform
Ġinevitably
Ġcloaked
Lev
ĠIndra
ô
arde
ĠDav
ĠMourinho
shall
ĠiPhones
Ġpercentile
Nato
Ġfocus
ĠJoh
Shield
Ġobstacle
phrine
inav
uri
Adding
ĠAtt
Ġpercent
ĠPrime
colour
Ġnumbers
Ġassured
ĠMash
ĠPump
eye
Ġtransmitter
Ġneurological
depend
Cru
ĠLV
ĠHos
Ġfollowed
WC
Ġhealthier
't
ĠReflex
ĠON
Ġtactics
Ġstripes
ĠKING
Ops
Rob
ĠDHCP
76
Ġlicenses
Ġenraged
coin
burning
ĠPretty
OUR
CHAR
Accept
Ġbestselling
ĠGarage
ĠIslamabad
ãĢį
mud
ĠCaption
illi
GB
Ġimmigrants
Ġ352
ĠBulls
Ġaccelerate
iety
Ġmild
MIN
Ġapproved
ĠMadden
she
ĠNeuroscience
Ġcaptured
ĠSouth
Ġsecondly
æķ
ĠGroup
Ġlighter
Ġdollars
ĠGods
Ġbig
ouple
raviolet
atories
ĠPatreon
ĠMeridian
UC
Clearly
Ġmagnitude
externalActionCode
Ġincrement
Ġke
Ġ1997
Ġbicycle
262
Ġev
Ġtransl
iti
Ġghost
ĠTar
ĠElena
ĠMinisters
Ġ/
ĠStats
USE
andon
Ġtast
Ġhalting
Ġaroused
pen
Save
ĠUnlike
Ġcrippling
plets
cells
453
Be
ĠFour
Ġ348
Integer
ĠGain
Ġ',
otherapy
Ġlinking
ĠDepths
land
iful
Ġbelong
Corp
works
n
Ġrefute
ides
ĠBac
cific
ĠToast
Ġ14
Ġdystopian
acey
ln
Ġtops
ĠSummers
Winged
ĠFlores
Ġcord
mall
Ġoriginate
Look
Ġpit
ĠMighty
ĠLicense
Ġdisastrous
sudo
ĠDocumentation
Ġsnipers
ĠSatisf
Ġfingers
Ġconfrontation
Ġ911
ĠLegions
Arm
Ġforc
Ġpolled
ob
ĠLevy
Ġsusceptible
ĠDARK
éĹĺ
worthiness
ĠNoah
Ġannexed
gency
Ġremoved
ĠOpera
Ġmaneuver
Ġworldview
Ġvehemently
affiliated
annels
ĠUni
Ġchilled
arnaev
Ġholog
Ġinexperienced
Ġsounding
Ġcircuits
Cur
ĠEventually
ĠHunters
irgin
Ġshift
redibly
Ġpiece
Ġturbine
Ġvetting
ĠReplace
IRT
cards
ĠCB
Ġheavenly
amples
Ġsexism
Ġportraying
Ġhis
Ġcoding
Ġformally
ĠNar
utters
Ġdefines
ĠNAD
Ġmileage
kees
ĠAbandon
Ġrelative
riz
Ġquestioned
Ġsummers
Ġ192
Configuration
ort
Ġspontaneous
Ġspl
escal
Del
Ġachieving
paced
ĠShir
ĠTelephone
Ġperformance
jar
Former
Ġfroze
Ġ1863
ĠTaxi
Ġcandle
ivably
coni
arp
opa
ĠOm
Session
Ġcontingent
Ġcuriosity
pload
schild
AGES
ĠMcH
Ġplanets
ĠBright
ĠOtto
ĠYOU
organized
cold
Ġcategory
urses
ĠConversely
Ġhoard
ĠMassachusetts
ĠUltimate
Ġexpectation
ournament
ĠTranscript
Ġbehaviour
ĠScores
ĠSmash
Ġbreak
Ġiter
ĠBanner
ĠPaddock
Lew
Ġdigital
ingly
Ġprocession
ĠCOL
illary
conference
ĠVentures
Login
Ġcopyright
Ġvulner
Ġnutritious
echo
Package
Ġrefinery
ĠCorridor
Ġascend
ĠNur
Ġpulled
App
ĠSatoshi
Ġstain
Ġcoastline
374
Ġsimilarly
Ġcommenting
Improve
ĠCock
Pan
ĠSafety
Ġenthusiastically
ayette
38
Ġservant
ĠAllow
ĠKR
Ġfinest
ictional
trace
Ġhosting
Ġdestroying
Ġcharter
Ġtransitioning
Ġlongitudinal
Ġoscill
Ġspeculative
ife
Ġcommittee
Focus
Ġistg
ĠCaliforn
Georgia
ĠGU
aired
axter
Ġgreenhouse
rio
oru
Ġdiluted
ĠBrowne
ĠEurope
Ġdecoding
Ġfrank
ĠSUV
Ġcling
ĠKits
idespread
YES
Ġstrive
Ġoffset
Ġeb
Ġdive
Ġoffices
ĠProsper
dom
ĠPas
ĠHTC
Ġsupports
Lear
ĠRefuge
ĠEnhancement
dim
Ġperfect
ĠPHOTO
Ġpreceded
ĠiOS
ĠBecky
Ġincub
DIR
ĠNut
ĠDana
Players
Ġspelling
Ġ231
ãĥĺ
Sund
Ġtrusts
ikers
ĠScotia
ĠMs
ĠScientology
Ġ01
ĠToggle
Between
Ġ(_
Ġcurator
Boy
Ġwelf
2200
Lou
ĠColiseum
Ġpitches
Ġquickest
ctions
Ġworsh
edly
Ġ263
Ġintertw
cens
Ùĩ
Ġunpredict
KE
[
ucle
ĠAtom
³
ich
Ġscheme
emetery
ofer
Ġve
ĠOrion
ĠMove
eden
ãĥĥãĤ¯
freedom
Ġdrafting
Ġlitigation
Ġstated
Ġlifted
ï
Ġchips
igmatic
ĠArs
ĠBelarus
ĠPerform
Ġpresenter
ĠThinking
Ġnearly
ĠKeller
iva
Ġepisodes
ĠZucker
Ġtor
Ġterritory
ĠFel
ĠNegative
ĠÂ·
Mount
61
ĠRebels
Ġhyd
ĠSally
Ġavail
ĠMMO
ĠBlend
gar
quarters
anty
topia
Wr
edom
ĠPain
Ġinterpersonal
Ġrewarding
Ġ157
Ġaven
sites
ĠFailed
Total
ĠSomehow
ĠOro
hole
ĠHRC
Ġmelts
ĠPhant
ombs
ĠMei
Ġtask
Ġexposed
node
asy
Ġ240
Wave
ierre
Ġspeeding
ĠTayyip
Ġ1909
ĠPrix
ĠWinnipeg
Ġshowcasing
ĠLegislature
Ġaccepted
ondon
S
ĠTrouble
ĠCompar
Ġdeeper
ĠRib
Ġcanopy
ĠFS
ĠAld
Ġflew
PN
united
DEV
juven
ĠCollider
Ġarrang
ĠSC
Ġenergies
ĠNY
ĠResearchers
ĠSecure
ĠPhilly
CIA
Ġadvoc
Rated
Ġcolossal
ĠJoan
ĠMercedes
ĠWins
Ġfloods
Ġ->
Ġcompiled
Ġinterrog
ynam
Ġca
ĠLightning
Ġdelivers
ĠBattlefield
conom
Ġexhibits
Ġrapp
ĠOswald
Happy
Ġlivest
Ġinterpol
ows
Ġcelebrate
ĠLan
ĠChallenges
Ġflyers
ĠGeorge
Ġpartner
ĠSina
ĠHouses
Ġdistort
VD
35
Donald
Ġparaph
ãĥĥãĥī
ĠFighter
ĠProgress
Ġfuneral
ider
93
Ġexhausting
Soft
ĠVoices
Equ
Ġrelate
Ġcalculator
ĠInitiative
Party
plugin
bott
gyn
Ġbur
Ġintensive
#
Ġwillfully
ĠAffect
ever
Ġ1916
heny
igenous
Ġfinal
Ġtouchdowns
Ġspider
ĠAwoken
Ġcolonies
Ġpopulation
Ġattacker
Fun
å¿
ĠHand
Ġattribute
Ġbrighter
ĠTunis
ĠAl
Ġrespectful
Ġunanimously
Ġsnakes
ĠPlanet
Ġeducators
Leary
Ġthriving
ĠImm
ĠFranc
ĠShock
Ġspheres
Ġhandguns
asus
KEY
ĠSounds
Ġdefaults
Ġostr
ĠFloat
iqu
artisan
ĠParticip
Ġstatements
ĠMagnum
UTF
asar
eteenth
ĠAppropri
Ġunrem
Ġconceivable
Uh
Ġseparat
ĠConversation
Ġbomber
ĠLisbon
Ġguided
intensity
Ġsocieties
ĠRouter
CEPT
Death
Ġshelf
Ġwhereby
au
2005
ĠEarn
ĠÂ±
Ġreinforcements
Ġcounseling
ĠAke
wav
Ġobedient
Assembly
yrim
Ġwrought
Ġfoothold
ĠSeries
ils
Ġund
ĠKurds
Ġblasts
Ġnutrition
Ġ};
ĠGuinness
004
Month
Ġvenerable
atherine
ĠCOMP
imity
Ġinfer
Ùħ
ĠStard
ros
ipe
ĠJess
ĠGru
Ġwow
ĠKnight
ĠSega
ĠOCT
Ġvaliant
NY
ĠSerbia
ĠSwe
MT
adjust
âķĲ
levant
ĠWhale
achine
Jew
Cloud
ĠWeek
ĠWii
important
Ġembod
ĠWalking
ĠGirl
Ġreadiness
Ġsubtle
Ġshells
District
Ġkicks
Ġhomebrew
Ġobsolete
ĠNek
runner
https
Ġ530
Ġappoint
unning
Ġfiller
ĠEverybody
ĠTraps
Ġround
ĠMT
ċ
ĠAdolf
Ġconsecutive
ĠYe
enf
Ġsecurely
ĠAvalon
ĠButton
ilation
Ġorganism
hyde
orthy
Ġmodeling
YOU
Ġscheduling
ĠWeekend
Ġpassports
pretty
Ore
ĠArtificial
ĠPredator
ĠOpt
Ġvideot
Ġcharacterized
ĠHume
":[
Ġmenacing
Ġstream
Ġdirectory
Ġerratic
ĠQing
Ġlatent
412
VR
nian
VC
Ġsect
ĠBallard
Ġblade
LECT
coal
CONT
ANS
ĠTac
ĠMiddle
ĠItalians
188
Ġperceptions
Ġconcurrently
Ġresurrection
Repl
designed
ĠSev
face
Ġtours
ĠAbyss
l
Ġcommodities
Ġcruc
ĠFant
Ġfans
ĠClubs
ĠLi
iar
gl
uling
ĠHank
Ġdescend
Ġaccomplishment
184
ĠRip
ĠAWS
Ġreins
Ġcompliments
Ġscreenshot
Ġrecovery
Ġprep
ĠMurd
Ġlegalized
ĠKill
rew
Ġgelatin
PokÃ©mon
Ġor
Ġphysics
ebra
Ġallow
sylvania
Ġplur
Ġelectron
Ġstocks
Ġprofoundly
418
Ġobligation
Ġsuppress
Ġagents
Ġsubtitle
antha
ĠHu
Ġregime
115
Ġherd
Ġbooths
Ġspawned
That
ĠQur
Ġoutlets
Ġdespair
Ġgel
ĠSask
HAM
ĠJupiter
ï¿½ï¿½ï¿½ï¿½
afer
ĠParkway
Thank
low
Ġmoderately
Ġtreated
Compared
ĠCreat
Ġdescended
Ġpuzzled
ĠUs
Ġsensing
Ġproduct
ursed
Ġjet
immune
ithing
Ġrode
stim
lp
Ġandroid
Ġ*.
omic
Ġdelusions
Ġblown
Ġfoil
Creating
Ġtheorem
ĠCauses
Ĉ
imo
Ġhighlights
Ġpavement
Ġarising
ĠKre
ĠLeo
ĠAndersen
otle
Ġ392
Ġrestaurant
ĠLol
Ġcompulsion
204
Ġcustomers
ĠTurning
Ġobviously
Ġcrown
Leave
iesta
Ġbreathing
¿½
Ġpoles
Ġshorth
Ġretreating
Ġpeas
ickey
Field
Ġproductivity
itant
Ġglow
ett
endix
Ġbandwidth
Ġcaptive
Category
Ġcaucuses
Ġsled
Ġs
ĠStreet
Ġnpm
Ġlol
Ġcontrovers
Ġslender
Ġcough
Ġdetailing
Ġheartbreaking
ĠWicked
Ġaccordance
ĠCheng
Five
551
ĠGund
aks
english
ĠKham
ĠPremier
idav
Ġblink
pair
ĠImproved
estern
Ġbanned
ulty
ographer
ĠSus
ĠProm
03
adal
AM
ĠCollective
ĠSPACE
idated
Ġrespecting
WAR
orius
ĠBoston
ĠMinority
Ġsquares
uph
Ġdumping
ĠRecommend
Ġretweet
anmar
Ġpolicymakers
anding
author
CHR
Created
Avg
ythm
gewater
izophren
emb
ĠKorean
203
Ġassassinated
Ġconcentrated
During
Ġrefused
Ġappend
1982
ĠLewis
Ġforgiven
ĠDEN
ĠKatrina
Ġexistence
ossession
do
Ġswitch
Ġfortnight
urbed
Ġsquats
Ġentitle
atern
ogly
Ġtagged
obiles
lements
ictive
ĠFro
ĠGrail
ilde
Ġadmon
Urban
ĠENT
Ġcommander
ĠKend
gered
ĠTackle
Dash
ĠHearth
Warning
anship
ĠNutr
Ġtab
Mobil
Ġfairly
ĠYeah
Ġsynergy
Ġpoll
Everyone
alogue
Bush
SP
ĠE
mm
Ġdropping
Ġrendering
Quote
Ġlicensee
yk
%.
ĠHyder
ĠCommission
¶
ĠArabian
Safety
commit
Ġstyles
ĠPremiership
ĠBrief
ĠKelly
007
ĠMidnight
ĠLines
TOR
Ġamazingly
Ġum
Ġherein
Ġbrush
ĠLT
Ġknowledge
resses
ĠKop
ĠLack
Liquid
Ġbackdrop
Ġvirtual
Ġcolleges
Ġ126
ĠFat
Ġclassical
Ġemergency
Ġbias
ĠSupporters
Talk
ĠKindle
Ġinv
etsk
gencies
Ġgarden
Ġstacking
Ġinflict
ket
raz
Ġcomplaints
Ġfeder
ĠCodex
Ġtoppled
ĠAmbassador
itri
Ġconglomerate
Ġresurgence
Ġswim
family
Ġcalm
Ġurge
Ġprints
likely
RIPT
Ġundrafted
abet
/"
Ord
Ġescorted
Ġ294
Ġsmuggling
Returns
Ġmasturb
repe
ĠPossible
limit
bird
Ġconvertible
agic
pas
Ġpant
ugi
ĠAre
Ġpeninsula
ĠPDT
Ġcorrespond
Is
ids
thy
tr
ĠBeach
Ġdissent
ources
Ġstaff
Ġsupposed
pie
size
ĠBah
NBC
ĠDifference
ĠRichardson
Ġlicensing
ĠkHz
how
August
spec
Ġrejection
ĠNebula
lled
olicited
)</
Ġdata
ĠTimbers
Ġinsightful
Ġdistrict
Ġsubstitution
ĠIg
Ġpolitely
886
Ġunsolved
Ġaust
ĠSTD
ĠSixth
oard
585
Ġtranslucent
Ġheterogeneity
ĠPO
ĠLans
æ°
Ġabsorption
pillar
Ġhonour
Ġdagger
semb
ilib
Ġ((
aults
Ġbiomark
ĠAf
Ġ28
rue
Ġlandmark
Ġthank
Sort
ĠChildhood
Ġconvenience
Ġnetworks
ĠKilled
Ġuncond
Ġwors
ĠHal
Ġseriousness
begin
Ġfinancially
Ġpatronage
ĠYemen
Ġinline
Publisher
ĠAlvarez
coord
Ġmotor
ĠZerg
vid
NOR
Ġleisure
Ġallocate
Customer
Ġam
ĠCLI
rowing
16
ĠâĨĳ
ingen
ĠVij
ĠPET
Therefore
Ġrift
ĠIon
80
dat
ĠMafia
Cub
Ġreperto
ohydrate
llers
Ġstarve
Ġvowed
ĠJedi
ĠCDs
Ray
Ġantioxid
ĠCasey
Ġecho
Ġ106
ĠVarious
INO
ĠGame
IFIED
wards
ĠGonz
ĠVanguard
Ukraine
ĠLevi
ĠLor
Ġquarry
Ġmastermind
Ġplots
UT
ĠComp
Ġgraduates
Ġconcessions
ani
Ġflexibility
Ġ....
ĠMilan
ĠMonte
olving
160
ĠSalad
ĠRegions
Ġrigging
Ġslipped
MSN
Ġextraordinarily
ANI
ĠREUTERS
opus
specific
igue
Ġwant
ĠBitcoin
Ġreduces
ĠWireless
suits
Ġcrowded
ĠDEC
1987
ĠEarthqu
ĠEth
cor
Italian
flix
Ġmeantime
Op
609
han
Ġstabil
Ġtoxic
acker
Obj
Ġrolls
ĠRapids
Catalog
ĠMany
ĠOmega
ĠTeddy
ĠLinear
Ġrig
ĠReaders
ĠPB
ĠStrategies
Ġacquies
Ġabsence
Ġ504
umbai
monster
Ġprotected
aches
inters
bes
ĠWORLD
itizen
onding
Ġfailing
Ġfeat
æŃ¦
ĠReturns
Ġlaughter
Yan
step
Ġcoined
ĠFriendly
Ġarchaeologists
oley
Ġbombardment
ĠWish
Ġcit
1984
ĠBou
Ġorganic
Ġdamning
Express
Ġreper
ĠJiang
Ġis
Ġovernight
Ġapplaud
ĠLocal
Ġdisclosure
general
Ġunaccompanied
Ġappease
"]
Ġcath
Ġasks
äºº
ĠINFO
Ġbid
Ġinforming
ĠNearly
Ġdozens
Ġpseud
ĠLight
Robert
Ġintent
flight
Ġlingering
Ġremem
Ġmoments
ĠSamuel
Ġfreed
oon
ĠMek
eches
ogn
Ġplanted
Ġsimplicity
Ġcontended
ĠLabyrinth
ĠShane
Ġmuddy
ĠKahn
Ġ1850
lucent
ĠHed
Ġseparatists
ĠKnowledge
Ġ285
Ġ399
Ã©n
Ġinspiring
ative
ĠOh
Ġrespondents
Ġhelm
Ġsandy
obyl
Ġfortified
ESSION
kered
ĠDON
Ġsucceeding
Ġrecy
Ġlandfill
Ġcontract
XL
Ġsights
Ġamygdala
Ġselection
ĠOblivion
ĠGamergate
ĠPresents
âĢ¢
pre
ramids
Ġteleport
ĠFranken
Camera
Ġ520
Ġborrow
Ġunveiling
ount
Ġendless
lies
Generic
Ġtragic
pite
ĠPodcast
Ġmortals
Ġproactive
Ġphrase
ĠCunning
ULL
Ġpurportedly
cy
practice
Ġinability
ĠHicks
school
requency
Ġsales
ĠAhead
inducing
Ġscram
ss
ĠFlash
ĠDrunk
Ġvegetation
ĠMachine
Ġstud
Ġintegrate
');
ĠMagn
iq
ĠWA
ĠLil
ĠSeptember
changed
atars
ĠEleanor
ĠLaboratory
Ġchildbirth
ĠNotwithstanding
Alternative
arlane
Ġmobile
Ġsupers
Ġfacilitated
Ġextermin
sand
ĠLur
Ġsurprisingly
ĠReef
ĠMedals
Ġestim
oys
Ġpsychosis
ĠRivera
ĠPopular
DEM
ĠHawks
Ġtalk
Ġcollected
Ġfared
ĠPlan
ĠPun
Ġopio
Handler
Ġbiochemical
Ġspells
Ġtutorials
Ġtales
mean
ĠPlays
577
Ġfruitful
Ġintertwined
Gl
ĠGerm
Ġharm
ĠTeachers
escape
Question
Own
Task
par
Ġcooperating
Ġ152
Ġ1949
ĠCutter
Ġhugs
ĠId
ĠTimeline
Ġflown
Ġprison
ĠJaneiro
Ġinitiation
deck
zsche
rent
Spider
Ġcounselor
Ġkeen
name
Ġrelayed
Ġelectro
ĠCatch
Critics
Ġcir
Ġchuckled
Easy
jam
Ġalright
ĠDirk
ĠCrate
ĠAssignment
ĠSims
ILLE
161
ĠRB
Ġharmed
versions
Ġsorcerer
Ġuter
Ġgender
Dave
Ą
let
ĠPrin
Ġintentionally
Ġadoptive
âĿ
lists
ĠLockheed
ĠGreatest
Ġlimiting
year
Ġcoin
pers
ĠPaladin
Ġqualifiers
Ready
å¥
ĠAnfield
uce
Den
utical
ĠVale
Ġ1990
Ġoccupational
AST
Ġcomplaint
ĠBye
ĠMans
Ġfractured
Ġbo
Ġtied
Ġrestraint
ĠACTIONS
Ġlib
Ġstab
Ġheater
,,,,
ĠWoody
Ġcubic
Ġmeme
¾
itan
Ġluckily
ĠFighters
Ġelites
ĠRecre
ĠSochi
Ġhooks
Ġinoc
liga
adin
Unt
Ġsmoking
659
Ġlil
Ġrab
ĠVintage
uku
pedia
Ġtouchdown
Ġnause
ĠBurr
954
Ġhaunt
855
Ġmins
Ġ385
Ġ-------
auc
ĠCostume
ĠProvide
wang
ĠThick
ĠAj
Ġconnected
Ġgroundwork
Ġclosed
ĠAunt
ĠBayer
Ġali
classic
Ġful
Ġeducational
ĠSki
Ġoptimization
Ġdelinquent
Ġresponsibility
Ġreasoning
ism
Ġ1932
Ġoutrageous
ĠBanks
Ġcriterion
Ġinfl
Ġmicrosc
Ġcas
491
Ġital
Ġcreeps
employment
Ġbutcher
yg
VIDIA
Ġerror
cfg
ribut
ĠWraith
Ġlangu
Ġ255
Ġlightly
ĠGam
Edge
ĠPastebin
Ġ1935
crete
ried
570
ĠNHS
022
Ġestablishments
Ġunaccount
ĠAven
ĠBelfast
Ġcitation
Ġdivisions
cancer
IDS
Ġattempts
Starting
Ġtouting
Ġ(.
ĠShowtime
Ġexclaim
artificial
Ġdebtor
458
named
ĠGallagher
justice
Async
ĠBagg
Ġquiet
Ġdeb
ĠPowered
heard
phot
Ġafar
Ġago
Things
Ġintr
ĠSubstance
ĠDor
Ġclot
Ġpiss
Ġcomplimentary
arine
Ġconfirmation
Magic
rag
Fortunately
becue
Ġtenancy
Spec
acea
import
Ġ&
Ġtrad
Ġbeloved
Ġcalculation
regon
Ġaerobic
kefeller
Ġmeat
abil
Ġstudied
Ġcompress
ĠLyon
Ġexist
Ġdate
Ġsurrog
ĠAustralian
Ġdecades
ĠNorway
Ġproving
»Ĵ
ĠCurious
pointer
ĠCES
AIDS
Ġtyrant
ĠFlesh
ĠHannibal
ades
Ġevaluated
ĠTourism
ĠIllum
Ġtargeting
Ġfunction
uncture
Ġvir
Ġmattered
Ġincarceration
ĠOvers
alsa
Ġest
ounding
ĠResidents
ĠGentleman
Ġpets
Ġinfluences
Ġrebuild
ĠTables
Ġproperty
ressive
ĠJackie
ĠMoose
Ġperiphery
Ġsons
Ġgrou
Ġraced
Ġdarkness
ĠMaj
Ġmaintained
ĠRandall
Ġscattering
Ġindefinitely
Gay
Ġtad
Ġpersonally
perties
iled
ĠCole
Ġwrest
ĠPel
ĠPages
ĠKonami
Ġlest
Ġbranch
Ġtraumat
eger
Ġemailed
holm
Ġraining
ĠMcCl
Ġdex
ĠCox
ĠIndies
Ġnab
ĠIncident
########
Ġclaimant
ign
burst
ĠKingdoms
allic
Los
Ġlabels
Ġallies
Ġpaints
Ġdiffusion
Ġgle
mont
Ġladies
rieved
Ġswell
Ġtrees
Ġhonesty
Ġstrength
ĠPolicy
573
Ġtutor
ĠInvestigator
Ġrestricting
ELL
ĠControls
Ġdoubts
ĠKarachi
Ġleftist
Ġspray
Ġlam
ĠAble
ĠStanding
ĠWalk
Ġchi
Ġcohesion
ĠScott
cession
Ġhearts
°
Ġadmits
ĠRELE
Ġenvision
ĠErit
ĠComplete
kay
ĠMarathon
Ġadjusting
ĠGraves
ĠTim
ĠFROM
Ġunderpin
ĠRail
Ġbasil
ĠMul
arts
Ġexceeded
Contin
Ġwhilst
ĠGren
ĠCrossref
Ġpioneers
217
ingo
Ġtrop
ĠIncreases
ĠRend
Ġgeneration
umbing
Ġdrainage
iton
Ġflushed
ĠSimpson
ĠFrame
piece
Ġembedded
ĠLCD
Ġspice
ĠDouble
ACY
Ġallergies
ĠIdol
ĠIP
ĠRogers
ĠMatt
Ġconstraints
Ġrepublican
ĠTracy
Ġseparate
Ġmiles
Ġpooled
keley
redible
Ď
Ġreviewer
Ġpartial
ĠNavy
Ġegg
Ġcomma
ĠExit
osed
Ġperformed
>>
Ġdisappro
Then
Ġassembly
Ġbil
imentary
Ġreinforces
ĠWise
Stre
ĠFa
Ġpractically
Forge
Ġdeeds
ipers
adapter
Required
pheus
ĠSET
Ġderail
Ġtaunt
ĠCrazy
ĠCourse
12 hours
oro
workers
Ġassures
ĠHolder
ĠEns
ĠCic
ĠTrash
Ġtourism
Each
ĠVen
Ġbenchmark
Ġcrafting
ĠETF
Ġnamely
Ġ411
alid
pta
Ġradiant
Further
Ġfueling
Ġlanding
aden
acial
Ġrestricts
Ġfrag
Ġmuseums
Ġniece
Ġwrote
ĠDaly
Ġbribery
ĠJorge
Ġval
Ġdawn
ĠFinals
ometown
Ġvague
alia
Phoenix
ĠCologne
ĠWell
ĠSubst
Health
ĠTechnology
Ġreceptions
Ġpreparation
Ġreports
ulic
Ġdom
ĠShy
ĠHillary
CS
Ġconveniently
ĠWalls
Ġageing
Ġerg
sexual
Ġic
canon
ĠChristians
WW
Mont
Ġdose
ĠAbdel
Ġshortcuts
Ġpatch
LL
ĠAdult
Cos
ĠORDER
235
Tro
device
Ġpamphlet
owitz
rome
ĠDollar
ĠRouhani
esson
microsoft
ĠCats
Ġdodging
Ġsettings
477
Ġrout
ĠCornwall
Ġunleash
comed
Ġothers
ĠBuffalo
ĠScal
Ġoppressive
WHO
Ġ808
Ġswath
Ġgarment
ĠTravel
Ġpurch
ĠKling
Ġcand
ĠPedro
liners
Ġdirt
Ġwhistle
urn
Ġbounty
Ġzones
ĠLF
renheit
auts
Ġinvincible
Ġshady
ĠRivers
ĠLee
ĠBund
ĠWage
enge
ĠAad
Ġsympathy
ĠLikely
ĠLowell
ĠScience
closed
Ġmetro
ĠR
Rogue
attr
ĠPeaks
Aff
Ġstrife
ĠOcean
weeney
USH
Program
Ġqualifies
boost
ĠClip
Ġvalid
oots
Ġsubcommittee
aaaa
Ġdeployment
Ġspeaker
Unknown
ĠBoards
ĠNewark
ĠHumanity
aha
orous
Ġdistant
ĠViolence
Ġunrestricted
Ġaggrav
Factory
998
OLD
lessly
ĠAdvance
pots
ĠRequ
ĠSuffolk
Ġmornings
Internal
Ġhonorable
Ġknot
Choice
Ġsilence
Ġsource
Ġgoods
ĠRockies
Ġspite
Ġnucle
ĠDu
ĠPotter
Best
Android
ĠHybrid
Ġflats
Ġbash
ositories
ĠJasper
ĠLAT
HOME
legged
IDE
social
actionDate
Environmental
Ġgust
ĠBaldwin
ĠConvers
Ġpartition
Ġtoughest
ĠNotre
Ġje
ĠScots
reci
renches
Ġamenities
ĠClearly
have
ensual
ohio
ĠHacker
Ġanthology
ĠPant
Ġabsorbed
Ġnat
ĠColombian
toe
Ġscarcity
ysics
assy
Ġaccessibility
Ġpart
Ġheadline
Ġbooze
Ġshown
Ġspecification
Ġachievable
go
ĠHour
ĠMustang
ĠKeen
ĠProcessor
ĠBAL
Ġreb
everyone
Į
games
anto
login
nard
Ġbelieve
apping
Ġocean
hare
message
ĠLOC
Ġune
ĠXL
ERY
nik
Ġcleaning
Ġbegins
ÙĦ
Ġrealizing
Ġmosques
ĠBolshevik
ĠMarino
killing
*/
holding
ĠHits
ĠASAP
>,
htaking
Ġtiles
Bon
Ġvirtue
ĠMisc
Ġ196
ĠZen
Ġstudios
Ġramp
ĠBaptist
ĠWagner
ĠBlues
virtual
eals
ruff
Ġremoves
ĠRicardo
productive
inez
RFC
Ġarrow
rahim
Ġspecialization
Ġlabs
Hist
Ġ**
arming
ĠInteresting
Ġsoldier
Ġtraces
ĠREAL
ĠAlpine
Ġvisited
ĠReck
©¶æ¥µ
Ġeffic
Ġthis
Ġrush
Ġintroductory
Ġ1925
amine
Ġevenly
spoken
Ġreg
oser
ĠJim
ĠPick
Ġstatistic
Ġoft
ĠDice
Ġexclude
549
Especially
irus
ennes
Ġcos
oubted
chenko
Ġcensus
ornings
Ptr
Ġmotif
ĠCob
fulness
Ġhomemade
ilage
XXXX
ĠFlying
Ġunlike
Ġowners
Reader
Ġobserves
ĠBradley
ĠRec
BOX
agonists
Ġfamous
ĠPt
Ġpossessions
ĠPa
Ġmagic
Ġcorrelations
Ġjokes
Ġanalog
Ġdatabases
template
ĠArist
inn
ĠSingh
ĠChart
ĠCrusher
ĠAlan
----
livious
ĠMining
ĠTransformation
ĠCG
Ġslut
Ġsuffice
destroy
ĠIdaho
Ġul
berto
Ġpenetrate
DEN
ined
viation
idding
26
istent
Ġtherapeutic
helial
Avoid
}
ĠLoch
ĠGREAT
Ġellipt
Ġcategor
Bu
Ġstip
ĠKislyak
ĠCommodore
Ġusable
Ġdisplaying
Ġdocumenting
ĠKyr
Ġplayable
729
Stock
ĠElements
Ġabolish
Ġimprovement
Ġrepent
Format
ĠCode
fff
ighed
Ġspeculation
Ġdeities
ĠSean
ĠContinue
ĠCoalition
ĠSeth
ĠGonzalez
Ġnarrow
Ġalternative
"""
Ġç
333
Ġinfinitely
Ġpunish
enture
Ġrighteousness
(_
Ġdared
ĠPyramid
ĠConnie
itled
ĠFeinstein
Ġcutter
Ġbattleground
Domain
Ġboot
Ġportrayal
ĠCanaver
ĠTransmission
mobi
Ġsixth
Ġhonor
ĠLy
Future
Ġbrim
ĠEssence
Ġuploaded
hua
Ġhonorary
lore
Ġspirited
VM
Ġinsurg
Ġinaugural
×
Ġancestry
yll
itter
dirty
igslist
istical
Ġencoded
Ġlect
ĠAlexand
ĠTOP
å¼
oms
ĠMushroom
ĠIEEE
Ġadvances
ãĥİ
irm
Ġendorse
Ġrisky
Ġdownstairs
1993
Ġturret
Ġreadings
Block
ĠNigel
Ġscream
iddled
ĠText
Graph
phia
ĠAccount
Ġrelics
Ġaccord
Ġclassified
Ġperformers
ĠHoward
Ġclimates
ENS
ĠJSON
Ġfluor
Ġhires
Ġdwarves
Ġvou
87
ĠAMER
SS
ĠReader
Ġevils
Ġbanking
Ġcore
Ġcleared
Ġworkplace
Ġrubbing
Merc
670
gging
ĠObj
Ġaggro
ĠFlorence
Ġmeasurable
atcher
berries
ĠFML
ĠBrett
Ġautonomy
abyte
inea
ĠBl
Ġprogress
ĠPolaris
BO
Ġamber
ĠJo
Ġdream
Ġmanufacturer
âĢ²
Me
ĠBody
Ġplaylist
Ġembracing
Ġown
Ġ238
vacc
Ġmonthly
Ġpian
lining
Ġrisen
Ġirrational
Ġstamped
ĠLiu
onis
Ġpageant
27
ĠNative
Ġpastoral
reve
ĠTro
ĠMillions
Ġcollision
everal
Ġcourtesy
Ġentrenched
ĠOkawaru
oring
ĠBrav
ĠNRA
ĠLud
sin
Ġminerals
Ġselects
Ġadditionally
ethnic
ĠLIC
Ġentrants
utations
Ġchanges
Ġwarr
Ġsparks
condition
Ġbel
578
ĠKidd
Ġ480
Ġ[+]
Ġfiguring
ĠBelichick
Ġvelocity
ļéĨĴ
Ġexplorer
ĠMinnesota
ĠZ
generated
Higher
quer
265
Ġairport
Ġhead
Getty
ĠFreem
ĠTy
AMES
Ġrays
kl
La
Ġbars
Ġisot
ridge
Ġfriction
Ġneoliberal
cipl
ophy
Ġ),
obe
Ġof
Ġquaint
ĠSolomon
ĠCir
atered
Heat
Vill
167
Ġantiquity
insula
ĠPenguins
Ġfitting
Ġbracelet
403
ĠElf
Perfect
ĠSuz
Ġtotaling
Ġburning
Ġwarp
ĠScot
ĠRevis
ĠQuartz
Ġprofession
ĠÂ¶
Ale
ĠBush
ĠVertical
irled
Ġvillagers
flower
workshop
ĠHerbert
erent
ĠTowns
ĠTop
Ġ===
Ġdisrupt
Ġparent
ĠSAR
Turkish
ĠPipeline
ĠCSS
Current
Ġreversing
below
Ġoxy
ĠAub
Train
ĠBahÃ¡
tele
Ġtyranny
ellation
able
computer
ĠGenie
ogeneity
ĠMetro
agement
Response
Prosecut
ĠRemoved
Huh
ĠPlus
Bar
tumblr
Ġtomb
Ġoptimal
Ġascending
Ġprepaid
Ġmatchup
ĠPatriot
creen
Ġindo
Ġbeaut
dule
anoia
Ġaired
sq
outs
ĠCavern
Ġprovided
Ġdated
Ġblogger
icip
cli
Ġsolo
ĠHonest
ĠRedux
Ġatheist
slaught
ĠAL
ĠSou
bidden
ĠSequ
Ġunusually
ĠTun
Ġexpects
llor
cdn
Ġesc
Imp
Ġslide
Ġamongst
Ġscreaming
rule
GW
Ġcoupling
uga
Ġdolls
Ġ1980
ĠRah
Ġcompilation
told
Ġcomp
Ġdating
Ġflashback
Interested
icted
Ġ119
album
Ġpatented
âĸº
Ġacted
Ġclicked
pages
Â®
Ġequitable
ãĤº
adesh
ĠYi
Ġswipe
ĠHulu
Ġrouting
Ġalleges
inem
OO
Service
ĠHopkins
Ġsequ
ĠFiorina
Ġfried
ĠPed
Fall
ĠMic
ĠPerth
Ġoccas
Ġgren
Ġfleet
ĠQueens
ĠStockholm
ĠHuss
Ġwithin
enberg
ĠUsage
Ġside
TRUMP
Ġabdomen
gaard
Ġiterator
Ġkins
Increased
ĠPF
Ġspanning
NT
fat
haw
<|endoftext|>
Elf
Ġbunker
ĠRelic
ĠPurchase
Ġunfounded
Ġner
aud
Lenin
ven
Ġdetermine
Ġglean
Ġrandomized
ador
ĠMor
Ġcongressman
Ġharmonic
Ġsends
Ġsheriff
Ġpornography
ĠOre
adra
lier
idate
lated
Ġscenarios
ĠChun
ĠMessi
egg
¯
stre
erenn
Ġspecies
ĠAlam
Ġfle
Ġremix
[_
Ġassumes
Ġcomposed
Ġpend
âĸĵ
ĠMahar
Ġlistening
swers
sten
Ġnationalists
Ġbun
ĠFol
Ġsurfing
Ã¡s
Ġsoothing
ĠVolvo
Ġreal
Ġfrogs
along
ĠLeth
owsky
Ġspectrum
Ġadvises
ĠAnaheim
ĠPhantom
Ġinfrared
Ġarchived
ĠSOL
Ġcracked
ĠRoot
Ġgir
ĠNAACP
relation
İ
ĠConcord
ĠAstros
hall
Ut
ĠAlzheimer
ĠBE
ĠMoroc
IFE
Ġregress
Ġhugged
program
hs
multipl
Ġlinked
Ġbitcoin
Ġcoefficient
Ġoperated
Ġbubble
Ġmillisec
Ġscrimmage
Ġunab
Ġpartnered
Ġdecision
Ġsmall
Ġtopics
Ġpayroll
Exception
Guide
Ġclosely
Ġprimed
Ġsnapshot
ç«
RON
Ġscripted
Roaming
Ġdisciplines
ane
Ġinconsistent
ĠSY
Liberal
ĠAirport
Ġpodium
Ġgases
ĠDem
etting
ĠHorizons
Ġyields
Ġrook
ĠKnowing
ĠCheese
Ġoptionally
Ġappointments
HUD
Tre
ĠPossibly
Ġtransmitting
ilipp
Ġsaving
Ġarchitects
ĠHind
ĠStones
Ġterrific
chart
-+-+
oric
Ġdent
Ġquest
ĠQuiet
Ġcoordination
ĠâĤ¬
ography
Includes
nick
Ġpursuits
Ġfriendships
game
ĠSpears
Ġdollar
VAL
eming
Enough
Ý
ĠVermont
ĠBubble
Ġbinding
Ġtourist
icut
cs
Ġfuturistic
Ġhastily
andan
ĠCap
391
Ġfend
190
owl
356
Ġshutting
Ġwitnesses
Ġ335
ĠSurf
Ġcalls
ĠSolution
tic
Ġpunishable
Ġheard
Ġangrily
ĠWilliamson
Ġprotect
ĠMarcus
Hyd
ĠMadonna
Ġmetaphors
ĠSl
isse
Ġhumanities
Ġdynam
Ġreconsider
cÃ©
Ġboxes
ĠDisciple
Ġembro
enh
Ġdiscourage
ĠJe
ĠPit
Ġdarn
Ġmortg
Ġmeta
Ġster
Nob
Ġdeception
Ġunexplained
ĠPACs
Ġrundown
Repe
Ġoccupant
Ġinformation
ITH
itu
ĠKay
ocrates
Ġtradem
arse
ript
Ġresh
ueller
pid
790
ĠCHR
ĠShakespeare
ĠThought
ermott
ĠNF
ĠGreenpeace
ĠHIT
PsyNetMessage
Ġretri
Ġtexts
}\
ĠSeoul
Ġsecurities
Ġatoms
Pers
Ġflip
://
edged
ĠFla
Ġjumper
ĠMET
Ġblacks
ĠTrop
Ġrog
tone
ĠGold
ĠHatch
476
izzle
Grand
cept
usterity
66
Bro
alle
Drug
zee
Ġorange
treated
ĠAdam
Ġvisc
Rules
ĠTie
ĠLover
Ġfearless
Ġsideline
Ġsoaking
ĠTechn
Ġplacing
Ġ465
ĠHurricane
your
utes
iencies
ĠCubs
Ġindividually
ĠBomb
ĠKasich
Bec
Ġvisa
Ġadapting
Ġpounding
Ġcomedians
French
Ġheads
Ġaf
Ġbl
ĠTray
ĠKore
Ġlistens
Ġloft
Ġsentence
virt
Ġunequ
imir
Ġasserted
Ġbree
itely
yssey
WR
Ġshots
Ġtrembling
Ġsomething
Ġclosure
Ġrecollection
Ġstartups
Ġemperor
Ġcumbers
Ġprogramme
parency
ebook
ĠMcCabe
seat
Ġinacc
Ġmac
Le
Ġanecdotal
Ġrestrictions
Ġnesting
Set
MI
Hon
ĠReach
ĠMing
ĠSIGN
Ġeffective
Ġpicnic
Ġlist
Ġfloated
rypted
tell
lif
DA
Ġpossess
ifled
Ġsec
Ġlittered
idates
Ġepit
ĠCET
Ġcalib
------------
Init
Ġtribe
Ġcultivate
ĠReconstruction
alking
Ġleased
Ġgrab
ricks
ĠMelania
ĠTransaction
Ġsolitude
Ġozone
Ġtackles
ĠCastro
ursday
30
chn
Ġcriticised
ĠParsons
ĠJou
Mbps
oby
ĠECO
647
ĠâĢķ
Ġordinary
Ġretrospective
Ġherself
Ġapart
Ġceremony
ĠDungeons
Ġexp
Ġreps
Ġfilmmakers
Ġunreasonable
meta
Ġmaid
aders
ĠPort
lished
Ġslog
Ġpackages
try
020
Ġexaminer
Ġmillenn
Ġspawning
Termin
audi
ĠRoz
ĠIO
ĠVolunteers
HEAD
mans
tained
Ġà¨
Ġleftists
Ġmaths
rational
ĠCLE
ĠPlaying
Ġrod
Ġanswers
Ġdenies
Ġchickens
during
ĠPRESS
Ġthru
ĠSnow
Ġinclined
obar
iny
Ġlanguages
Ġstair
Ġrob
Ġstunning
Ġdisturbed
iculture
Ġgarments
Ġsound
ĠHair
Ġboredom
innamon
Dro
Ġamount
ĠIncarn
Ġsum
Ġunamb
Ġhypocrisy
Ġanarchist
Ġmall
Ġcozy
Ġsuggests
cause
Ġroadmap
ĠWrit
Ġsniff
ĠWit
ĠOliver
ĠINTER
Features
screen
ĠEpiscopal
Ġfaint
arma
Ġcompromised
Ġbaker
hop
ĠScotch
clusions
otyp
points
Ġunpre
Ġbailout
Ġgrind
Ġaided
Ġpseudo
lication
Ġunres
Ġnorthwestern
mat
ĠFif
ĠThroughout
puter
Ġweddings
ĠAch
Ġbreached
Reading
57
mel
ĠNewspaper
Ġchooses
Ġhop
OURCE
Ġdeductions
Ġsurvived
Ġauth
½
Ġinitialized
Ġdays
Ġunderworld
461
lets
ĠSpicer
Ġ)]
ĠRohingya
ĠPier
ĠFav
Shop
Ġwipe
Ġhomosexuality
usk
Ġthreaten
Ġadmiration
TL
Ġbird
Ġtour
Ġ389
ĠDiscord
Updated
ĠActive
612
Ġbattalion
Ġhypertension
gements
ĠMP
Ġdigitally
ĠTurks
Ġgrenades
Ġment
Ġprincipal
master
ĠSSH
ĠXiao
rm
Ġmaintaining
Ġderog
ĠTrends
ĠGO
ITT
ĠVote
590
Contribut
Ġuber
Ġglory
ĠLooks
endar
ĠLonely
Ġsch
Subscribe
Ġhemorrh
ĠAki
ascular
Ġeff
stall
Ġmana
Ġpopulous
185
ĠPret
Ġ326
Ġbackers
Ġhometown
Ġcolors
Ġnucleus
Ġattracts
Ġheavens
Polit
Ġfactory
utics
Ġrecru
ĠContact
Ġbuffet
ĠQU
ĠDin
imming
ectomy
Ġbrill
Ġdiscriminate
Strength
ĠHazel
Ġwaterways
ĠBrittany
ĠPork
Ġtir
Ġassoci
Ġmaneu
ĠBellev
Ġproceeded
aten
ĠConsumers
Rew
tailed
Ġintense
uddin
Ġmisdemeanor
Ġwilderness
jriwal
Ġbrilliance
Ġsession
Ġselling
Ġtriangles
assembled
Ġdoub
ĠCrew
ĠLect
Ġusher
Ġray
Ġintention
ahah
fam
Results
ĠCAM
es
iae
eeee
Over
Ġvap
ĠBezos
Ġlands
frames
Ġ2050
ãĥŁ
Ġinternet
Ġoranges
ĠKansas
Ġ2014
Ġ(-
Ġbeads
Grid
usercontent
IGHT
Anne
arious
Ġtaste
ramer
metal
SOURCE
Ġdrawback
ĠBetsy
Ġinsist
Ġcatcher
icularly
Jean
Ġ)
ĠRatings
rawler
04
igger
Ġanthrop
ĠTrey
ensity
ĠTicket
ĠTasman
alog
Newsletter
vari
oler
Ġglucose
ĠBurg
Ġcultivation
Ġfights
Ġfrontier
ĠSere
ĠSoon
Ġexports
Ġkne
ĠTennessee
amel
Ġappro
quez
ĠTanner
Ġpainted
Phil
Ġnegotiators
Ġ353
ĠFargo
Ġrebels
Ġmobilization
raved
ĠFaust
Ġextremism
ĠEsther
Ġheating
Ġapplauded
01
Ġchained
Ġheaded
Ġzoning
ffic
Un
ĠNemesis
ONDON
Ġlikelihood
cro
athi
absolutely
ĠHearing
Ġlimestone
January
Ġdessert
Ġthoughts
Show
Ġarose
ĠSOM
Ġpharmacies
Ġexplosion
ĠShar
oning
Ġeliminated
ĠTrail
ĠRomantic
vas
Ġsister
ampoo
ĠGreens
122
JJ
ĠGaul
zac
Coun
umerous
peak
Ġequations
ĠPIN
agara
Ġspecificity
ĠEuropeans
lehem
Ġillum
iya
ĠKob
Ġthat
Ware
Ġconsistently
ifestyle
amped
instance
Ġshooters
ĠFrank
Ġlousy
Ġresists
icio
rontal
Ġplunder
ujah
Ġanchored
Ġunregulated
ĠSyn
-------
lock
Ġrows
Toronto
notation
Ġfishes
transman
Ġwhite
ĠAbbey
alter
Ġallocations
Ġdesk
Ġbehaviors
}:
ab
uming
Ġoffering
ĠTriple
Ġmarketing
Ġmandate
Ġtwice
Ġscor
Ġstrap
ĠContinuing
ernaut
rapnel
68
Element
ĠKaren
Ġextingu
ĠLeadership
ĠKai
Ġfarmer
Ġ%%
643
Ġfielded
ĠSay
ĠMeasures
Yeah
Ñģ
Ġconsultant
ĠWebsite
Ġaccepts
Ġendeavor
685
662
Ġchars
Ġfavorites
Ġunison
ĠSpin
disabled
Every
lation
agle
ĠTelecommunications
Ġfacet
isf
Introduced
Ġbart
Ġperform
Ġrebellion
Ġhilarious
ĠFIA
Ġonce
Ġglances
ĠÂŃ
ographic
Ġspitting
1988
jerry
Ġvengeance
acci
sa
Ġaggression
Ġslowdown
Ġshipment
Ġbrittle
ĠAMA
ĠLantern
Ġnew
2012
Ġarmour
ĠInterstate
Ġenacted
Ġline
Research
Notice
civil
Ġapplause
Ġpitch
Ġsummarized
ĠCJ
Ġpolitical
Ġmunicipalities
Ġuphill
ĠFever
ax
ero
xus
tes
you
Ġmentality
Utah
Ġyour
ĠGibson
Ġsomet
ania
Ġrobbed
Ġchuck
Ġskills
ĠSoviets
Correction
âĢ¢âĢ¢
Ġobservation
agent
ade
550
ĠLind
Ġterms
Ġactions
Ġcollaborations
Ġinterpreting
Ġoptimum
ĠCharlie
ĠShiny
activity
ĠWarm
ĠHunter
Ġmart
Ġgeography
Ġconc
ĠFraz
okin
ĠSquirrel
aments
gangstas
Ġbolted
Ġblot
Ġterrit
Ġends
ner
ĠHeadquarters
ĠNeil
Len
urd
Ġallotted
ĠFont
ynchron
Ġdavidjl
?????-
ĠAvenger
ĠJames
Ġinstallment
Ġdevastating
Ġlawn
Ġmembrane
ĠTomorrow
Ġflesh
Ġwhisky
clear
IX
worms
Ġcongratulations
Ġscoring
All
ĠHalf
ĠWILL
Amazon
ĠAwareness
Ġkios
ĠRegulations
Ġoriginally
ĠBett
ĠWebs
ĠConstant
ĠGiles
assemb
aila
highly
ordered
So
åĨ
fts
ĠJanuary
asm
595
atch
Ġredd
Ġresembled
Ġenvironmentalists
ander
ĠBe
kg
Ġexec
Ġpedigree
Mine
Ġreviews
syn
roph
On
Hopefully
iba
exec
Ġdialect
ĠMelissa
iop
ĠWE
IV
iov
Ġbreasts
Ġfountain
Ġpu
ĠOuts
find
orio
Ġrule
ĠLegisl
Ġunfold
ĠMiliband
anza
ĠHunt
Ġmere
ausible
Russell
herer
ĠMiguel
ĠPistol
ć
Ġvitamin
Ġslaying
fx
Ġdistinguished
ips
Ġremovable
Ġnecessarily
Ġnu
ĠFerry
ĠJericho
lahoma
ĠGeorgian
âĶģ
ĠB
ĠGriff
Ġgirlfriends
ities
Ġechoes
ĠForced
Ġsalvage
Ġflashing
amaru
Ġenhancements
oud
ĠKeeping
Ġoverdue
MAN
Ġwomb
police
Ġhar
eful
Ġheadlights
Split
ĠAccessed
Ġmechanic
tracking
ĠCedar
d
Ġlobe
Ġgol
Cast
Ġcondemning
flake
ĠUL
Ġlacks
Ġcel
Ġterribly
Ġinstitute
Ġupgrade
Ġreplay
Ġput
dal
910
Ġmounted
Ġtug
mu
Ġexercise
ĠEnding
Ġcoun
ĠDrink
Ġsigned
Ġonboard
!/
Ġavoid
ĠMAN
Ġreconcil
ĠMissouri
693
ĠCookies
ÂŃ
ĠNikon
Security
a
392
ini
Ġvirtuous
3333
Ġflashy
Ġatomic
stars
iatric
Ġconsideration
ĠStream
Ġstubborn
bush
Ġbeg
amina
Ġgrief
unia
Ġlips
Ġpatriarchy
asts
ĠLo
Ġnetworking
Ġabortions
filter
Ġvenue
Ġlifestyle
ĠBryce
Ġapplication
Ġgenerals
Ġdeclining
CB
ire
ĠAber
Altern
ĠSlate
ĠMichael
ĠShut
Ġcyn
ĠInsurance
Ġdescriptor
Ġinsofar
ĠLeather
atures
iley
hen
ĠMassive
Ġquite
Ġcooper
Ġprobable
Poly
ĠScottish
221
Ġbald
Ġdisciples
Ġcredentials
Ġclust
Ġfills
ĠIdea
Ì¶
ĠNoble
Ġlistings
Ġcartel
joining
reset
ing
Ġcollectors
Ġmount
Ġignoring
ĠDSL
icious
Ġvitro
Ġembryonic
urred
._
heastern
Ġreferees
hip
Ġstriking
Ġ):
elsen
Ġmalicious
^^
ĠDexter
Ġrug
Ġsaf
git
Desc
Ġsizeof
hetically
midt
raf
Ġfeels
Ġdecline
foo
Ġrecol
ĠAle
Ġcollective
ĠTraining
ĠHarding
irmed
ĠFresh
spawn
Ġcrowd
Ġvolume
Ġbastard
ĠWI
appropriately
107
archs
Ġresponsibly
ption
ĠCharisma
ĠFX
Ġdermat
ĠAircraft
Company
desc
Read
Ġportrait
Ġcheese
Compar
Ġinadequate
Ġskept
ĠOrganization
ĠGad
ĠNO
Ġearns
ence
urrection
Ã±o
Ġfig
Ġways
ĠSav
itory
ĠGmail
Oracle
ĠQUEST
ĠPersona
ĠLucky
ĠJol
ĠVAT
Gu
Ġpractise
ĠIndeed
ĠnaÃ¯ve
asi
Ġcornerstone
Ġwit
Ġbot
redits
Ġthroat
ĠHarris
Chall
ĠConfederate
ĠNort
Ġdirections
ĠFou
product
interested
Ġsufficiently
Ġbay
copy
ued
Ġwelfare
Ġstained
Ġlaughing
Haunted
Ġviewpoint
Ġnewfound
ĠNeighborhood
arc
Serv
Ġtranscript
Ġorganizers
SSL
Ġcollided
é¾įåĸļå£«
Ġdiagrams
necessary
>[
Ġtelescopes
ĠNav
ĠNeighbor
Ġdomestic
Ġgenerating
ĠVerse
Ġsubordinates
Ġfive
ito
Ġraspberry
Ġdetention
Ġtop
ĠHeroic
ĠLerner
ĠTours
artist
ĠGREEN
Ġearned
ĠORIG
Sl
Ġ301
Ġhopeful
ĠBless
ĠCull
ĠCY
Ġ113
RF
Ġinvestigate
Ġmil
ameda
83
Ġfees
;;;;
Ġtrope
ibel
ĠAlas
Ġaccusing
ĠOtherwise
found
ĠXT
ĠAllaah
ĠTeacher
Chat
vin
ĠGap
Ġattrition
Ġmistake
coe
Ġheals
Topics
express
airs
ĠDetention
esame
Currently
Ġrescued
âĹı
ĠQuarter
OPER
ĠCrescent
ked
ĠMinutes
single
ĠGlou
Ġ135
Ġruthless
Ġripping
developed
306
iltration
Ġ1922
ultural
bey
Ġflavour
eta
Ġscience
Ġ580
Ġsponsoring
ĠPowder
Overview
Ġroadside
udge
Ġconstituent
ĠGoddess
Tact
ĠBiblical
Ġabduction
Ġsimilarities
ĠRossi
Ġmeets
ĠBEST
Ġrodents
onto
Ġupdated
ĠMinimum
Ġpersistence
isu
Ġtears
Ġimperial
Ġexactly
mark
auto
Ġatten
ĠGPIO
Ġbalcon
ĠWelch
iche
Ġverbs
ĠSons
Ġtry
anting
Ġunderground
Ġentire
inch
sle
Ġblinding
Ġmother
magic
»
ools
orig
aren
Ġspr
ailing
702
Ġmelody
ĠEthiop
Ġshipments
Ġrivals
Ġimplication
etooth
171
.""
ĠDamn
ĠDragonbound
atics
ĠTrees
ĠComput
Ġcommissioned
ĠVeterans
oi
Ġ64
rss
hops
Ġintrigue
Ġ/*
ĠâĶľ
ĠSyracuse
Ġcollector
Runner
ĠRepresentative
Ġassailant
Ġsac
ĠParamount
ĠMIS
kamp
ĠMUST
imei
WAY
Ġcouncillors
ĠCoulter
ĠRounds
Complete
Ġreceivers
Ġtoddler
hig
Ġcoverage
baby
Ġmanner
Pitt
itals
inx
adow
uc
Ġlauded
alf
Ġmessages
ĠMurphy
Ġadmission
497
gp
nox
ĠSequence
Ġready
ites
Ġscaff
Ġdiscounts
ĠTwenty
ĠRIS
Ġthrowing
Ġjustifies
Ġproblematic
Ð¸
sharing
Ġ49
Ġarchaeological
ĠPalestin
ĠSusp
Ġaiding
!.
ĠMont
iological
Ġdevotion
ĠJudah
Ġdeg
Ġextra
ĠBenjamin
Ġdaring
erton
ĠScandinavian
Ġenigmatic
itiz
ahon
ĠPG
ĠAvailability
)]
Ġdealing
ilee
ĠBoeing
Ġtoes
ĠRegiment
incarn
ĠHERO
atches
Ġmalf
Ġ279
Ġ{\
ipping
ĠDefin
ĠLakes
ruck
ĠCollector
Â½
ĠMaze
icts
Ġlawfully
rence
Ġunderstandable
Ġlending
ĠBoise
ĠProtective
ĠOEM
Ġbucket
ĠTelegraph
make
Ġfallacy
ĠGram
Ġsob
Tour
Ġsurging
Ġdefendant
ĠOrigins
Hot
Ġagg
Ġcellphone
Ġlook
ĠHy
Ġvast
ĠWalker
amide
Ġpiled
Ġdeviations
artifacts
Ġammonia
Ġprinc
itive
thumbnails
ĠLeia
ĠCatherine
borough
Ġturn
bet
ip
Ġcurtail
ĠDefault
Ġmas
ĠManning
Ġsuppressing
Ġcircumvent
ĠCanberra
amacare
ĠShack
Scotland
Ġimportance
Ġgly
Mark
63
udes
umed
ude
Ġwet
ĠEaster
buck
altern
In
ĠPhotography
Ġpainful
ossal
ĠStrategic
umeric
ĠSta
Ġcooldown
ĠSSL
ĠScout
ĠCursed
ĠCadillac
Ġvote
ãģĻ
ĠSantorum
Ġreligiously
Ġ76
Ġrethink
ionics
sea
Ġfoll
irection
Ġtransplant
ĠTHC
Ġbreed
ĠDifferences
umped
Ġcolours
ĠSquadron
Ġachievement
âĨ
Ġdrafts
Battle
ĠHP
Ġendpoint
ĠMarxism
Ġrampant
amental
ĠExtensions
ĠCla
ĠBoris
Ġtanks
industrial
ãĢİ
ĠArab
ĠRaj
ĠMaterial
Ġprotest
ĠLegend
ovie
Ġbitterness
ĠObject
ine
ĠIndian
Ġforesee
ers
Looks
inished
ĠDunn
alez
atters
damage
Ġmammal
oyle
ĠDrops
ĠHans
Ġannounced
Ġheadlined
non
raction
Ġsympt
][
Ġtyping
Ġkilometres
ĠBod
Years
Ġstorytelling
Ġgranite
Ġsoc
ĠTrigger
valued
Ġanecdotes
414
Ġpursue
Ġrelated
Super
eval
Ġmedieval
Ġrepentance
Ġmir
ĠPD
ĠPaleo
Ġsuggestions
Ġspearheaded
TC
Ġinsur
Ġtherape
Ham
Ġsubp
ĠLenin
ĠDuty
iterranean
á½
Ġfats
Soon
Ġapproval
Ultra
bug
ĠCanaveral
Ġtowering
Ġknowledgeable
Ġvaguely
requisites
Ġincentiv
Ġforgive
ĠLin
Ġyell
Ġbead
Ġpresumed
aza
ĠâĢĵ
Ruby
ĠTunisia
InstoreAndOnline
Ġrules
Ġmit
Ġgovern
ointment
ĠÃ¾
Ġmiser
Ġrecommendations
Ġhighlighting
ĠWeber
Ġveins
elia
ongevity
usp
atography
Ġchap
Ġlegislature
pelled
ĠSER
ĠClassic
ibli
Ġauthoritative
Ġmosquito
Ġsquee
achelor
Beta
Ġbuf
Ġveiled
videos
Å¡
flo
Ġcapitalism
Ġpedestrians
ĠEndurance
Ġdecided
ĠLv
bags
;;;;;;;;
Ġitself
870
Ġcrackdown
ependence
ĠPyro
irts
Version
ĠConver
ç¥ŀ
Ġbung
Ġappears
Ġinsol
athering
ĠOC
Ġamplitude
Ġcannabinoids
ĠHeights
Ġright
Ġ327
offer
Ġmaterial
gars
ĠXiaomi
Ġshootings
olver
ĠDirection
ĠAvery
legraph
ĠHorizon
Ġpieces
ĠSomething
ĠNES
Ġshoppers
Ġrelocate
Ġfreedom
Ġtheorist
Ġcabinets
renched
ĠDj
ectar
Ġcame
iuses
Ġstatue
Ġforge
Ġrisk
447
ĠDamage
Ġlake
ĠThere
Ġprohibition
ĠAscension
Ġcorrect
Ġcontend
ĠBrus
Ġphysicist
ĠGaza
forest
Ġcomply
Ġdrugs
ĠIcelandic
Ġcuc
Ġconnection
ĠValencia
ifix
Ġimplicated
åĭ
romancer
ended
ĠGIF
Ġenjoying
Ġtaxes
ĠPassenger
Ġflagship
cigarettes
wrote
Ġawaited
minded
Ġpim
ĠMoody
ĠCindy
rak
Ġdisabilities
Ġuns
ID
Ġmmol
Ġ51
Ġbizarre
ĠMits
ĠCal
Ġdetox
ĠProfile
Ġdh
312
ĠDairy
ģ
ĠSimon
Ġmes
co
Director
ĠQuin
Ġcouncil
ARR
description
Ġphysician
Ġestimating
Ġfeeds
ĠHorowitz
Ġsounded
ĠVenus
rett
abilities
ĠGenetic
ĠLemon
Ġï¿½
ĠTate
ĠPepper
ĠGauntlet
ĠInnovation
Ġvendors
Ġtakeover
Ġundone
Ġblowing
Ġeconomical
ĠRav
Ġbriefed
ĠâĢ¢
Ġfootsteps
Author
Ġentrepreneurial
Ġpuberty
mill
ĠMDMA
Ġ1958
ationally
Ġtotally
erial
ĠWhether
Ġflower
ĠFischer
ĠEmployees
ately
maximum
ĠProgramme
ĠMt
ĠDresden
ail
ĠAqu
ĠMembers
NET
Ġ1898
Ġpants
Ġequ
Ġprayers
itte
Ġmotions
\<
uru
Ġcoordinates
Weight
Ġintimately
Ġpanc
ISS
weapons
Ġpenn
Ġdrill
ĠUlster
ĠTh
cin
ĠSister
Ġenough
Ġfict
Ġrepe
Ġspears
Ġapproach
ĠEvening
Ġvigorously
small
Ġledger
VERSION
ĠTalent
Ġtraditionally
Ġregrett
ĠHTTPS
terrorism
cium
vag
Ġpointers
Ġendif
Twenty
Ġcultural
Ġreproduced
ĠPay
Ġplag
ĠHarbour
Ġ("
Ġax
Ġsightings
arity
horn
oration
Ġfps
Ġlaunchers
$,
Ġblaming
Ġdeserves
stress
Ġanticip
IFA
uminum
ĠSuccess
fps
isable
bow
onia
VER
Ġmeditation
Ġviolating
Ġidiot
Ġamend
usual
evidence
Ġunrecogn
Ġappearing
Ġaccuse
Ġaccording
Lee
Twitter
Quest
ĠPiper
Ġ,
ĠLeaves
ĠSpani
EW
ĠWord
Ġunlocks
Ġcontributing
lying
Ġdistract
109
Ġstarred
Ġcreeping
Ġwidget
Ġtorso
Ġfatally
ĠKazakh
ĠSter
ĠIllusion
Unix
Ġgroup
FG
Ġcapit
Furthermore
Ġchildish
Ġinteracting
anwhile
Ġrelevance
Ġcompeting
Ġsomeday
ĠSatan
850
JR
Ġsergeant
ĠRuby
Methods
Ġrefreshing
ĠRaz
="#
ooked
assian
ERSON
ĠISO
Ġchanging
TI
Ġâĸ
oslov
Ġblame
Ġallegedly
]]
castle
Ġ1889
Ġhauled
ĠInstitutes
Ñ
ĠLit
ĠSith
Ġ768
ĠHumph
quant
ĠGoPro
ĠWalsh
enfranch
ologne
ĠLou
ĠBasic
Ġvandal
ĠGrad
Ġexamines
Ox
rils
Ġhousehold
ĠTow
Ġaffluent
Ġemptied
Prime
ĠEduc
Ġsporadic
ĠBayern
ĠParables
ĠMoe
Builder
fer
THE
ĠShiv
ĠRSA
Ġdistraction
ĠBooster
Ġincreases
-+-+-+-+
Ġfreshman
ĠWeaver
Dan
Ġarm
ĠRaven
vention
rys
ĠArm
itime
ĠSoul
ĠMartha
ĠNin
Ġaffiliate
ATER
press
ĠJamaica
Charges
Channel
ĠGTX
Ġcoastal
ĠWolverine
amura
Ġstatewide
ĠEnsure
Ġappropriated
Ġcul
Ġconcoct
olate
ãģĦ
ĠDeclaration
Ġwhis
Ġfavoured
cia
osexual
nu
Ġanything
Ġpilgrims
Ġsandwiches
Ġlocom
Ġconve
Ġdisillusion
Ġkeynote
Â®,
ĠJO
ĠNest
Defense
jac
ĠNobody
Ġ503
mol
Ġnutrient
ĠAX
Ġlicens
ĠParameters
Ġ502
ĠDoomsday
val
Ġact
terms
Ġfracture
ĠStop
ĠCharge
rovers
Ġamassed
Valid
ĠClare
Freedom
porter
7
Mexico
arden
ãĥī
ĠDisco
Ġwishing
Ġeh
Ġceremonial
Ġsovereignty
ĠAssy
ĠChan
Ġmonkeys
Ġwives
ĠScript
nexus
lesh
Truth
Dur
ĠZed
ĠpH
Ġcrou
TX
ĠPell
regulation
********
Ġvouchers
Ġpress
ĠProf
ured
ĠBlaz
Ġgorilla
Gaming
Ġcolder
ĠMelt
Ġutter
Zip
Ġelement
inity
essed
ĠSai
Ġconce
avage
ĠTrojan
Ġnaturally
ĠFast
Ġtranscripts
A
Ġ($)
PLA
Ġ243
hoff
ĠRBI
Ġpractice
Ġbenz
Ġscrutin
ĠKristen
wise
419
ĠPelosi
Ġencourage
Ġtoxins
Ġrestitution
essential
ĠGuests
Ġfeared
lar
Ġpainting
ĠCourage
iframe
singer
ĠLowe
Ġ401
ria
Ġagility
Ġdeveloped
ĠRomo
Ġhelium
Recomm
Ġiterations
ĠFall
contin
ĠEmployee
ifle
Ġcivil
Ġimplies
']
ĠSHOULD
ĠBBC
Ġeasing
Ġtrespass
ĠCout
ighton
erman
Ġstupid
ĠLocation
Ġshifting
Upload
ĠAbility
Ġnumber
ĠMB
Ġordering
Ġcollisions
Ġupgrading
ivities
share
Ġalluded
plate
timeout
ĠFranÃ§ois
pocket
Ġbackup
Ok
Ġsunk
Ġadjustable
jury
Ġgrandfather
judicial
ĠSydney
istors
Ġsnacks
ĠMell
Kosovo
iki
Ġ268
Ġbusiness
ĠPalmer
Ġtrump
ĠBob
Ġdraw
Ġdetect
Pred
Ġawakened
\">
ĠLL
Ġdiet
Ġ292
ĠItaly
691
ĠGreater
euro
ĠRocky
Ġwaters
ĠSadd
oline
vidia
church
Bre
Ġchurches
Ġstaffer
Ġenthusiast
Ġattempting
Ġ0
Ġreversed
Ġpenalty
Ġmarginally
Ġunfamiliar
çİĭ
Ġgenomic
lethal
rench
ĠRegulation
Ġfrontman
Ġfoods
ĠRadiation
Ġaid
ĠexternalToEVA
657
charge
ICAN
ĠTV
Ġtherefore
useum
Ġ5000
ĠHamilton
emporary
ĠSaudi
Ġideals
Ġterrified
ZZ
Ġmark
gender
Ġsty
Ġuniversally
ĠPROG
ĠKosovo
ĠLikewise
Â¯Â¯Â¯Â¯Â¯Â¯Â¯Â¯Â¯Â¯Â¯Â¯Â¯Â¯Â¯Â¯
Ġtandem
uay
Ġrape
Ġinsurer
Ġexposure
ĠTW
Ġsplit
iltr
00200000
Ġbathroom
ilings
593
Ġinflamm
ischer
Ġaddiction
157
Ġhandshake
ĠOilers
Ġbehav
ĠLouisiana
Ġshoulders
Ġarresting
Ġamazed
Ġtorches
ĠThanks
Ġverge
Ġtighten
Ġbearded
ĠPoles
Ġbourbon
Ġemission
ĠSalam
Ġvanish
Ġbrightest
ĠWrite
AUT
inst
ARGET
Ġplastic
Ġdepressive
ĠBerks
ĠDetected
Ġrenovated
Ġlifts
Ġclaw
ĠFlip
ĠEnable
Ġanch
Ġcheering
Ġconstitutional
ĠBroken
Ġdeceive
Ġdividend
Ġtypo
Ġcontemplation
enei
een
ĠFEC
Ġnonprofits
_(
ãĢĳ
ĠKlu
yd
ĠApplicant
ĠMedium
Size
Ġmach
Fat
ĠPadres
ĠForward
OTO
Module
imaru
Ġskulls
VERT
Ġsystem
ĠBroadcast
opl
ĠAlz
Ġwhip
ocity
Ġsouthwestern
Ġtel
Ġfinding
Ġimpair
typically
AAAA
ĠSoviet
Ġlevers
Ġcar
ump
NBA
roversial
yahoo
Ġsc
ĠRevival
OU
Ġseparated
Ġthy
EE
Pos
Ġmage
Football
Ġcrippled
Comments
Ġresidential
Ġresearching
Ġdont
Ġrepl
Ġdisag
Ġtradition
Ġstitch
ocard
ĠCard
Dial
Ġdesc
Ġproposed
Ġplural
priced
ĠGould
Ġtransportation
Memory
Ġ(%)
Ġtesting
Ġvelvet
Ġcommencement
Ġtournaments
ĠMald
cookie
etta
Ġsituations
Ġreproduce
ãħĭ
Ëľ
ß
Ġedges
Ġwinners
Ġgy
Ġtempo
arin
Ġsoutheastern
afort
ELD
Ġboard
Taylor
ĠInvestment
Ġgets
delete
wall
Ġousted
democracy
ifted
Ġni
Ġthyroid
birth
226
Pros
Ġunwillingness
romptu
ur
efully
ww
Ġundes
ĠLogo
ĠTechnologies
Ġtore
Ġridiculously
Reuters
ocamp
ĠUnloaded
ducers
osure
Ġsho
ĠAwards
Ġbandwagon
Ġsulfur
Ġye
Ġpowers
Ġheats
venant
ĠCrim
ĠRace
ĠLank
Ġjuicy
bar
Ġposture
Ġblessed
ines
ĠSeymour
ĠCatalyst
ĠAssociated
Ġinvoking
Ġpsychiatric
Ġaqu
pires
Ġrejected
ĠLux
Ġintu
Ġdreadful
Ġregion
Ġtouches
ĠPirates
auer
ĠCities
Ġspoke
ĠBenson
ĠHDMI
assed
Ġcort
Fram
ĠDuke
Ġdrew
Ġaccident
Ġscarcely
Ġplaythrough
Ġcredits
ijing
Gold
Ġsor
ĠMcCartney
Ġrem
Ġnightmares
helps
ĠAchilles
Ġconspiracy
ĠPrivacy
ĠTsarnaev
Ġundet
Ġimpunity
Day
Ġoccasion
una
ĠOrc
åĽ
ÅŁ
ĠSans
ĠFAA
Ġsciences
Ġfranc
Ġwithdrawing
ĠML
Ġenumer
Ġinhabitants
Ġlinear
Ġrich
Ġindoctr
Ġoutdoor
ĠWindows
ĠClaim
orative
Ġfiltered
Rom
Ġmisguided
limited
Ġ43
Ġdesignate
inating
ĠJessie
uta
Ġ376
Ohio
ĠFres
Ġpermissions
016
ĠSEE
Ġpacking
Lic
ĠEmacs
stant
Ġdocumentary
ĠInfect
ĠMermaid
ĠSemi
]=
Ġweek
uper
Ġsouven
ĠMods
Ġgrievance
ĠHawkins
Ġnihil
ĠMessages
Ġreferred
ĠCena
icht
backer
Ġpreferences
vell
Ġg
--------------
Ġantid
ibrarian
ĠRasmussen
olith
ĠMusk
Ġindependents
Ġbowel
Ġparticip
Ġfeedback
ĠLogin
France
oster
ĠMI
Ġcountryside
Ġprecipitation
oubt
Ġswast
ĠThus
Ġtrio
BUR
Ġbroadcaster
apo
Ġincarcerated
Ġprofessions
Ġblogging
sters
verts
ĠGuess
Ġawfully
ibaba
Ġiconic
ĠViv
Living
ĠGift
nl
literally
opping
akra
Wed
Ġdeliver
drivers
Ġforgotten
athom
ĠMaker
Ġacknowledged
cedented
ĠMFT
Ġconsum
ettel
Ġsmooth
Ġtraveled
Ġdonkey
Ġvoltage
Ġimperialism
Ġjeopardy
ĠJaw
Ġjacket
Ġaliases
urs
Ġmindless
ĠLopez
Ġdisconnect
ĠXXX
âĢĭâĢĭ
Ġlater
Ġdurability
Ġtrials
Ġresearchers
ĠDani
Ġunaffected
Oregon
ĠSessions
ĠSince
Ġhilar
291
Ġairspace
Ġchorus
ĠTrotsky
ĠStatue
Ġexpulsion
ĠEVENTS
Gal
ĠMeh
Ġtasked
erva
Ġindebted
Ġferv
Ġreimbursement
Ġknight
Ġmurm
Ġim
hyp
akin
Ġemphasize
Ġprisoner
ĠCustoms
Item
Ġforged
Ġsam
å·
Ġmilitia
Ġpermits
ĠSpring
Ġreaches
Ġcurfew
ĠPete
Ġmortar
ĠRings
token
Ġwhore
Ġdistinction
Medium
ĠJeffrey
Ġmercenary
Charles
erto
ĠChanging
Ġjavascript
Elect
.;
dB
Ġfail
dro
oran
ĠBarney
Ġnotification
Chain
Ġdubbed
Ġtechnician
Ġyou
Ġriff
sf
Ey
shift
Vari
Ġcongen
Ġdamp
Ġpriests
can
GC
ouble
dict
ĠNer
Ġscared
Ġpayday
pe
****************
Ġbuffer
Ġresidues
gallery
zanne
ĠPayments
ĠSupport
ĠZombie
ĠGiul
Ġharassed
ĠNaw
ati
ĠLegends
ĠMoves
rior
her
ĠCant
ĠHockey
ĠEnemy
ĠInn
Ġcellar
abis
ĠDiaz
ĠCourtesy
ool
Ġblister
Ñĭ
Sat
Ġoutbreak
ĠPool
idd
Comm
Ġcursed
network
ĠTasmania
Mike
Ġlandsc
Ġcoupons
Attribute
Ġresistor
SHIP
odo
ima
Ġrespons
orrect
Ġposs
et
ĠRAD
Ġproduces
width
Ġgastro
Ġdips
ĠArms
Ġautos
Ġinvested
Ġwaves
1968
atri
ĠResearch
Ġpushes
cult
addy
SELECT
Ġimplemented
ĠDonetsk
Ġanyway
MF
ĠMk
Ð´
rehens
Ġconditioning
paralle
ĠStraight
Ġsparking
ĠBerk
Ġguilt
ĠMadison
ĠKern
Ġrefuses
Ġdemocracies
assetsadobe
amiliar
ĠBarrier
Ġaccurate
Tip
Ġindicated
ĠTurkey
Ġrevolves
Filter
è£
Ġrelic
ĠTemple
ãĥķãĤ©
Ġvary
enders
Ġstitches
Ġnecess
ĠUlt
first
Ġfilthy
plane
Ġprospects
Going
Ġaimed
Job
Wonder
ĠBro
ĠEy
Ġ336
åħ
geist
Thread
Ġhoped
Ġconnector
ĠRita
Machine
ĠGuy
Ġvoters
ĠArabia
imp
ĠDAR
Ġoriented
Production
inct
us
ĠEL
ĠReleased
graph
inventory
Ġgrop
Ġthanking
Ġartificial
positive
vv
Ġ177
avering
SAY
cocomelone
Ġlonely
Ġunemployed
CNN
Ġcommend
ĠDoes
ĠSanctuary
Ġcelebrities
Ġswelling
Ġwines
Ġdisadvantages
ensus
Ġdeceased
Ġholders
Ġfatigue
ĠGi
ocumented
ĠReduced
Ġfulfil
buff
Supp
Ġcenters
Ġblatantly
ische
Ġwounds
owed
ammy
Ġlose
nm
new york
(&
ĠClint
ĠJUSTICE
001
ãĤ¨
ĠKong
aster
Ġrevolution
Ġanalyzed
Ġinteract
ĠDahl
ëĭ
Land
ĠPolit
ĠFight
Ġabbre
lc
ĠKO
latest
Ġwrapping
runners
iberal
Ġtranslates
ĠBender
Ġgin
Ġ188
orm
Ġaccidental
ĠFernandez
so
ĠWatkins
jing
Ġfreshwater
Ġinhibitors
Ġanalogous
Ġping
Ġracing
reath
Ġfab
Ġdislike
Ġinsiders
ĠMC
products
Ġresign
Ġcampaigner
Ġperhaps
ĠEcho
lass
Ġbiologists
majority
Ġprivilege
Ġmotivating
Ġsynthes
osterone
Ġplutonium
thinkable
602
iest
Ġtransactions
Ġprotested
Ġshrimp
employ
isen
Ġjustify
Ġcher
Ġtasks
ishop
ĠSight
Ġinflicting
Ġaccomp
rities
ĠGit
Ġcampuses
Ġpreference
ĠGeneral
Ġpromised
Ġquests
ãģĤ
scientific
Ġadversaries
Ġnodded
DeliveryDate
Ġindistinguishable
behavior
Jews
Ġprayer
ãĥĭ
ĠCTR
Ġinjure
Ġ{"
ĠRandomRedditorWithNo
vern
Ġglamorous
Ġ250
ĠCultural
wrap
ĠUnix
ĠPeggy
Games
Ġranging
ĠPolly
ĠCambodia
Ġconstruct
Authorities
ĠIgor
Ġhitherto
ĠKod
Ġgeometric
ĠManuel
Ġguidelines
Ġimmedi
Ġsniper
Ġresolve
ĠLS
Ġarrogant
aining
Ġuncontrolled
Ġurges
ĠAdobe
Ġgear
Ġorders
ning
ocrat
471
£
mount
ĠMuller
Ġpath
Ġbuyer
Ġclinically
Ġblasphemy
ÃŃ
Ġfry
Ġconvince
ĠLanding
ĠKass
rep
Song
ĠSurvivors
Ġ9000
âĺħ
Ġrotation
ĠBid
Brave
Ġsher
Ġfreeway
ĠJar
Ġdiplomat
âĸ¬
Ġ337
ĠDynasty
Ġpreviews
assin
fc
anth
ĠDanish
urrence
Ġiss
ħ
Ġunpredictable
ĠDev
attled
call
Ġbytes
Ġbindings
margin
Ġethanol
LOCK
Ġforth
Ġengineering
ĠRousse
Ġbicycl
Ġpolice
Ġjoy
Ġprotects
ritis
ĠShot
viol
Ġdich
zone
åī
Ġreconnect
)",
},{"
Ġassistants
Ġincluded
Term
Ġposted
Ġspacing
Ġisolation
irteen
marks
ĠK
emark
ubric
etz
Ġnominees
ĠKaepernick
ĠCron
ĠDecker
Ġ3
ĠMacro
ĠCut
ounter
Ġ1880
Ġliter
ĠGiuliani
Ġ333
ĠBrick
Ġrou
Ġadds
mails
Ġfilename
ĠRenault
Ġtougher
Ġmidfielder
cho
Ġcritically
Ġcotton
Earth
Ġcomposer
ĠComponent
Ġinspires
Ġundergrad
independent
ĠKaufman
Ġhopping
ĠCelest
Ġdebuted
Bride
Ġmisunderstand
ĠToxic
Ġunfolded
Ġministers
Ġpoppy
ĠGob
Ġanalysis
irez
akuya
Ġforce
Ġgrim
Ġprofessionally
Ġfollower
ĠSnowden
ĠMorning
Ġbri
Ġbase
ĠAmerica
Ġbenchmarks
Ġreduce
ĠLeaf
Ġvec
itability
ĠBear
Ġgenerous
ĠOccup
ĠEscape
Ġschedules
Ġstern
Ġunfortunately
Ġprivate
XP
Ġrabid
huge
Jose
ĠClair
ĠUnits
Study
ĠBucs
Ġscales
Ġjerk
ĠMotors
Ġdashed
ĠGamer
Ġsumm
ĠGrowth
Ġpert
Ġbigotry
ben
ĠForever
ĠFilip
Ġcynicism
Connor
irting
Ġspoiled
Ġmun
Ġgrave
Ġprompts
Ġcorrelation
Ġsovere
ĠLoan
Ġpse
neg
Ġspew
Ġrehe
Ġcarrying
ĠOffic
ĠPrince
ĠReynolds
ĠHEL
take
Ġspectator
æĹ
Ġcomplexities
Ġfaces
ĠCorp
Ġcheek
Ġrouter
Ġstalls
Ġworried
ĠHave
Ġexemption
Ġbuildup
Ġisol
ĠFrancis
141
Gab
ĠWHEN
ĠJew
ĠOscar
ĠDolphins
ĠAla
atched
ĠCONTR
ingu
ĠJessica
ĠNaval
aleb
Ġcortical
Ġsurvivors
Ġbeck
demand
velength
onso
Ġwondering
mittedly
ĠHist
ĠDenver
Ġ246
Ġprice
Ġaxis
ĠBuch
Ġhypnot
Ġcyan
ĠHerman
ĠGEAR
ONEY
Ġkidnapping
Ġmotive
Ġreferen
ĠNewsletter
Ġcryptic
change
Ġrisks
abo
580
Ġslash
resource
psc
ĠTRANS
olen
christ
Ġbleak
war
Ġnothing
ĠDiscussion
Hours
remember
ĠBucket
ĠExperience
ĠRational
Ġcalcium
Ġanomalies
Ġbirth
Ġarises
ĠFraser
default
Ġcompetent
uration
bf
Ġharvested
Ġcasting
Ġhotline
ĠUnion
tp
ALE
Ġstainless
Ġsuccumbed
brainer
Ġdisparity
Ġreflect
Ġwhist
Ġamps
Ġoptics
Ġconsist
Ġcomprehension
amon
Ġpregnant
ited
FFFF
Ġstations
Ġinhuman
arette
TION
Ġpige
ãĥĬ
ĠScheme
ĠAndrea
Ġdividends
ĠGDDR
ThumbnailImage
Ġyourselves
ussion
agreement
Beg
ĠWh
Ġhands
meter
nis
ĠOrganisation
ĠBlazing
Ġbuilt
ĠHassan
ĠPhelps
Ġchoir
ĠBradford
Ġdifferently
easy
Ġdemonstrating
Ġqueens
correct
ĠKathy
Ġpremiered
ĠTroy
ĠRubio
ĠPatriots
Moscow
ulpt
ĠPKK
Ġtransporting
ĠConclusion
Ġtying
ĠConservative
Ġdebugging
Ġharassing
oky
Ġsoul
Ġperfectly
Ġsuffering
Ġmultif
ervatives
space
Ġrubble
ĠPetroleum
ĠWait
ĠPac
Ġintermediary
Ġprovoke
Ġfolklore
Ġmurdered
ĠDisney
raw
Ġneut
Ġenter
arily
ĠClar
Ġrecap
Ġtextual
ĠWouldn
Ġheroes
æł
sit
Ġconfines
Ġbanter
ĠVia
Ġtournament
Ġsuccesses
andy
days
Ġproven
Ġconfident
ĠHezbollah
ĠWak
isbury
clave
iesel
.............
Spirit
Ġhp
Ġguise
vm
Ġreelection
Ġshop
guard
quished
ĠSleeping
PH
Ġeminent
Ġzipper
cutting
Ġcustoms
endi
Ġdelicate
ĠKorra
ĠAngle
UGC
bedroom
iday
Ġinj
âĸĳâĸĳ
Ġ139
Yesterday
ĠAstral
792
Ġcommercial
ravity
ĠFirstly
Ġsurpassed
Ġembraced
ĠDonovan
804
ĠPapers
ĠMartian
Ġstains
stones
ĠZoe
ĠY
Ġcirculating
rape
Ġ212
ĠIrving
Ġconfront
Fine
985
--------
ĠPTS
inventoryQuantity
ĠGrassley
Still
cluded
________________________
ĠOct
Ġpeoples
Ġ1927
Ġooz
oker
Ġwrap
Ġ1937
father
Ġdominant
om
ĠRegistered
Ġturned
PDATE
Ġice
Ġupcoming
Ġcirculate
rament
ĠPand
asu
ĠClinical
Ġlessen
Ġevasion
Ġlobbied
Ġfreeze
Ġ#####
Ġcircumcised
Ġfusion
ĠWendy
dayName
Ġfamiliar
ĠEn
ĠDepth
Ġdisapp
ĠMyst
llah
Ġdriver
Ġuniquely
ĠWax
Ġushered
ĠShape
Ġsans
Baby
blogspot
Ġframing
joined
urrent
State
Ġneighbourhood
Ġjackets
Ġsarcast
Ġpiling
Ġtranqu
Ġbelts
Ġav
Ġtar
Ġpoor
ļ
ĠSnake
Ġï
Ġcanned
Track
ĠBub
Ġdecipher
ves
Ġbus
Ġdedication
Ġtwentieth
ĠSign
Ġstreetcar
Ġphenomenal
plin
Ġreceipt
ĠWet
Ġcost
ĠSecond
Ġoutright
EF
BW
ĠKush
elvet
ĠGan
Ġpolit
Ġfelony
á¸
ĠFlex
511
ĠAdvisory
Ġsolicit
'd
Ġthous
Ġrequest
Ġminiature
ĠFinish
Ġrecite
oun
Ġspecialists
ilities
ĠConsolid
Ġabduct
iction
heres
Amount
SW
fail
504
aceae
Ġoutweigh
Ġeloqu
Installation
Ġraise
ĠStation
..
Ġextinct
Ġbelieving
ride
abolic
Ġspreads
ĠPew
References
Sur
Ġflavor
ĠYellow
ĠBetty
Ġhandlers
Ġrookies
opped
Ġassociates
ĠAmir
ĠCommercial
Ġ</
ĠKes
Ġtoy
Ġbeliefs
General
Ġexpresses
ĠYorkers
ion
Ġinfected
ĠNIC
ĠNCT
ĠResident
ĠJACK
ĠLei
Ġcompounded
Ġfoolish
Ġimperson
ĠAdvoc
Ġembassies
emi
Ġpracticable
Ġzip
Ġhypothesized
Ġswift
ighthouse
ĠIgnore
ying
ĠTX
ĠBrees
ĠMostly
Ġdetainees
Ġmayoral
ĠSAY
Ġdomin
Ġmetabolites
boarding
Ġawful
Ġcharacterization
ĠPull
ĠTrad
andals
ĠWindow
Ġtargets
ĠALP
Ġadjacent
resist
phil
ĠUtilities
itzerland
Ġgenes
Ġtip
Ġenchant
Ġintel
ĠIPCC
Peace
puff
inker
Ġutilization
Ġinh
wikipedia
æī
ĠSelect
Ġgoogle
Ġteasing
Ġensure
rophe
Ġ())
Ġknockout
ĠEng
Ġcrossover
Ġbleeding
ĠGDP
ĠHots
ĠTownship
intern
Which
Ġ1917
Ġbothered
Ġallergic
JD
Previous
Ġdeprecated
Ġtackling
Ġoverth
disable
Ġtopp
Ġoverlap
ĠKev
Ġempower
Ġ17
Ġmolded
room
Ġties
ĠPatty
utor
ĠCuban
OTE
Ġrosters
ĠPyongyang
Bas
Ġmould
Ġcartoon
Ġinfluenced
Ġeater
ĠPod
Ġcelebr
++
Ġlogs
ickson
Jamie
Ġstomp
sal
ĠPassive
ĠRhod
Unique
Ġrods
ĠAIDS
ĠFusion
ĠFeedback
ACT
status
Ġshorter
Ġaccumulating
Ġplead
iz
po
soon
ĠLovecraft
Ġconceived
Ġmarkets
-.
Ġpodcasts
Pur
Ġautomation
Ġassemblies
Ġfaintly
Ġinappropriately
Ġash
Ġparticipation
Ġstrawberries
Ġfatig
Ġnarrative
ogle
ĠKoh
Ġsculptures
ĠSacramento
Ġframe
Ġplun
ĠVoc
695
Ġcherish
Ġconducts
Ġchrist
Ġsmallest
Ġslight
ĠBung
John
Ġdimensions
Dig
ĠTales
Ġintermedi
ĠAbuse
Ġcaval
Ġgenetics
inois
Ġ666
Ġobfusc
Ġlove
Ġ"[
Windows
Ġelicit
Romney
Ġkill
Ġpersists
Ġbirths
beaut
ĠFather
Ġundersc
Ġfixture
crop
oids
Ġbanners
hazard
Ġratios
riet
ĠSpotlight
Ġinterviewed
Ġshowers
Ġferment
ctuary
ĠUk
Ġcarbohydrate
temp
Ġanarch
Ġinfinity
Ġcane
Ġacne
ater
Ġhit
ĠWells
Ġgobl
ĠPublic
Ġpink
ĠAbstract
ĠCecil
ĠTeg
Ġmetadata
Ġspinning
Ġconfigurations
ĠPersonally
Ġapartments
552
Ġstandard
ĠPerspect
Ġfu
ĠCheryl
ĠAncient
Ġcarbon
ĠNBC
ĠRochester
Ġscrape
----------------------------------------------------------------
Ġunl
Ġpriceless
patrick
ĠEvents
rieg
orders
ĠMak
Ġdeposition
ĠHonestly
ricane
ĠMarvel
ĠRud
Ġproliferation
Ġemphasizing
anke
ĠSavings
ANCE
ĠIstanbul
ĠIRC
ÂłÂł
ĠRaphael
Ġvehicle
imate
Ġbeetles
Ġineffective
Ġpear
Ġdeparting
thood
Ġabuses
Storage
regn
zig
ilded
isible
bon
Ġdear
Ġsubs
Ġinsign
SET
Ġemitting
YP
arrett
.(
2018
Ġoutlaw
ĠVenezuel
Dom
ewater
ĠSm
idge
ĠCarth
viron
ĠSal
oglobin
Ġintegers
Ġanomal
oway
Ġrolled
ikuman
Detect
ering
Ġsubsequent
200
ouri
Ġstabbing
Sensor
Ġpace
Ġpenny
Ġanonymous
Ġcancel
ĠArts
access
ogeneous
Ġgraft
Ġsevered
via
ĠBailey
Ġ339
minecraft
Ġshame
ĠSynd
Ġstarvation
Ġ2006
Ġroasted
Ġconcentrating
Ġproper
ĠTavern
${
ĠJacksonville
ĠEnvironment
ĠAth
Ġdancing
Ġdiscussion
ĠMubarak
Clinton
ĠArabs
shr
ĠMills
Ġarise
Ġcampaign
Ġinhabited
Ġforcefully
iveness
Compare
Ġarranged
six
ĠKardashian
Ġexecutable
Ġaerial
Ġeleven
Ġinclination
ĠReson
Ã³
ational
Ġidentifies
Ġdrying
ostic
Ġfortune
Evidence
Ġyielding
bid
Ġunimagin
Ġcertificates
Ġdexter
Ġdownloading
Ġleakage
ĠIPA
Ġlurking
Ġfostering
Ġpages
ĠCountdown
Ġscreenshots
LP
ĠZh
Ġhen
ĠNinja
Ġwiser
Ġspa
æĺ
hei
Ġcaring
Ġsaint
EVA
Ġprosecute
?).
ĠCreate
apult
Ġworkings
Ġsoftly
ĠCreep
aret
quist
ĠBulldogs
????????
Ġreplacements
034
ĠRefer
Ġcurrencies
time
Ġdemoral
Ġappealing
ĠContent
Ġconvergence
external
ĠVaughan
UK
stick
Ġpoetic
inical
bike
ĠPetra
ĠReligious
960
Ġsew
Ġfloating
Ġhonored
Ġcareers
Ġfraud
ights
ĠUFOs
Exactly
Ġthreat
Ġclusters
Ġelong
Ġknob
ĠAnaly
Ġcaught
ĠProhibition
pres
lead
ensive
/+
scope
eric
Ġscrib
ĠBasics
Ġintroduces
ĠMissing
Ġexemplary
Ġcrowdfunding
execute
ĠNOR
ĠCar
use
ĠPhen
q
ĠAncest
Ġcomedic
prov
Ġlamp
lip
ĠNightmares
Ġmaintain
ĠCrimson
Ġantis
Simon
ĠDial
78
Ġtranslations
Ġelbows
Ġ2030
flies
inding
ĠNit
Ġsurprise
ĠLocated
ĠCosts
BA
olk
1960
âĢ³
Ġcrimson
ĠExamination
Ġregression
ĠChal
Ġsoaring
Ġinfect
direct
ibus
ĠChemical
ĠDmitry
ĠTVs
izarre
allo
ĠMech
istrate
2011
otide
Ġgladly
ĠGarry
Success
ptoms
ods
Ġlan
Ġunde
Ġstudents
glas
Ġ406
Ġinequ
olutely
icultural
Ã©e
ibrary
Ġhaircut
ĠLego
ĠGeneric
ĠBarton
ĠKent
bris
Ġaw
green
awake
qv
alyses
ourage
Ġmisconception
åİ
elligent
Ġproclaimed
ophob
éĹ
ĠÙħ
Ġcommunicate
Ġrecognition
if
alg
ĠPione
spell
ĠConcept
kies
Ġritual
Ġ223
Ġguru
Ġtyrann
ĠSweep
Ġpad
Ġpeeled
ĠWing
Ġdumped
ĠFul
Ġoffic
Cle
Ġsurveillance
ĠBrun
ĠRefresh
Ġstunned
ĠAugustus
iency
Ġquotes
Ġtransistor
Ġpillars
ĠIntelligent
Ġhas
isi
entials
sel
Ġcuts
.âĢĶ
ĠElectoral
Likewise
Pad
Ġclout
ĠLock
Ġtack
verbs
ĠRichie
ÃĤ
Ġtuber
dial
Ġdiscretion
Ġidi
ĠGuild
auna
Ġknock
Ġallowed
Ġwireless
ĠOops
ĠMichelle
ategory
ilantro
Cl
Ġtraffic
ĠPocket
Ġreminders
Ġslow
flying
Ġdissatisfaction
ĠGentle
it
(),
Ġpaths
Ġsubject
Ġheterosexual
Ġimplied
ĠPure
udos
Ġpublic
Advertisement
ĠBastard
ĠTechniques
ĠMarc
Ġdoorstep
Ġfortunate
kowski
Ġrelentlessly
Ġabsolutely
ĠDK
ald
ĠUbisoft
ĠGamb
ĠTEAM
Ġfeminists
tz
661
Ġdiscontin
ĠFried
Ġdots
ĠPizza
ĠLing
Ġtreatments
Ġmade
ĠPact
Ġradically
rator
Ġintimidating
Ġgenres
Ġ30
ĠStark
Ġdamaged
Winter
iem
Ġdb
Ġppm
Campaign
ĠSahara
Ġwaved
Ġlegisl
fact
193
ĠIPM
Ġprecinct
Ġunite
ifacts
abba
ĠChem
ĠSide
clone
Ġadmins
alpha
ĠLetter
Ġlava
Ġauto
Ġintest
actic
ulin
Ġgl
Ġfinds
WER
ICS
minist
feature
Ġsubsidiaries
Ġachieves
Ġnano
ĠLuc
Ġrapidly
should
exit
ĠStewart
ĠBowl
ĠBread
Ġvoucher
MG
>>>>>>>>
ĠShin
ĠHAR
pton
dig
ĠPlayboy
297
VALUE
Ġwar
.--
ĠHindu
Ġsuspending
Ħ
Ġsettling
Ð»
ĠArn
ĠPlat
eping
ĠAMC
Ġcorrobor
Ġexceptionally
ĠDeadpool
awaken
Ġattempt
Ġpleaded
ĠPlayoffs
ija
ĠLap
Ġ737
Ġinc
ĠFacility
docker
assets
ĠEuras
Ġshuffle
ĠRak
Ġsatur
lit
ĠBucks
ĠBryant
Ġwas
Ġpoured
Ġediting
Ġinspectors
ĠImperial
Na
Ġfermentation
respond
ĠManitoba
ĠHitchcock
Ġ500
Increase
Ġcrisp
Ġsoap
ĠMoh
igg
Ġmomentum
ĠHir
Ġdepletion
âĢ¦
":[{"
Ġblasting
ĠRecipe
orp
ellectual
Ġminimal
Ġprop
ĠACTION
ĠSeeking
Ġedited
ĠNone
ĠMand
that
Ġninth
profile
Ġhelps
chwitz
ais
},
Russ
ĠSchedule
ĠDip
ĠAuthors
Ġwarning
stal
Ú
Bear
Ġarri
ĠLater
Ġlarge
Ġpayout
ĠNadu
ĠCarol
Ġtranquil
stood
QB
dp
ĠQueensland
Ġapps
Ġprioritize
Ġeducating
ĠHover
Nich
ih
Ġ""
Ġunaware
Ġdestructive
Ġcustomized
Ġfear
iott
Ġpersonalities
Ġbuckle
Brexit
ĠKerr
Ġdynamically
Ġtransitioned
Ġdriven
Ġeye
Ġsubjug
ĠÂ§Â§
short
erg
ĠThings
usters
ĠOnt
!,
ĠBronx
Ġhumid
Ġexceeds
ĠTransactions
fo
ĠDOD
Ġacceptable
CI
ĠShelby
Ġabandonment
Ġrespect
Ġmixer
ĠFN
icles
ifiers
.</
ĠPrev
chery
Ġ"_
occ
Ġspurious
ucker
Ġredirect
February
Israeli
Ġperiod
Ġsubreddit
Ġindisp
Ġfuss
ĠCertification
rien
Ġhoney
onest
Ġtakedown
ĠCorrections
Ġrepairs
Ġposition
Ġwedding
Ġhandles
Ġbroaden
Ġnon
ĠBib
uu
Ġelusive
ĠFreud
iants
ĠMystic
Tra
JV
scribed
subject
Ġjudges
...)
ĠArkham
Ġcraft
ĠRevelations
pread
ĠGPS
Ġsupervision
Ġmasc
Ġhypothal
skin
act
ĠForces
Ġsleeves
Integ
bench
bell
Ġrecognized
Ġhours
ĠSalem
ě
ĠGerr
ĠPrimal
ight
Ġrailroad
Ġflares
Ġparanoid
Ġmud
Ġmessing
ĠUpload
esting
Rachel
Ġknew
oot
Ġintrinsically
Ġsorcery
Ġliberate
Ġbooming
Ġ72
ĠEdmund
oding
Ġmagnetic
Ġwatchdog
Ġthereby
Ġcorners
ographers
ĠFunk
Ġdenim
lua
Pr
Ġbuild
Ġmeans
Ġscree
Gordon
Hispanic
586
imgur
Ġadversely
Ġlaboratory
ĠWCS
Ġcarefully
different
elling
ĠGov
ĠReward
ĠDescription
ĠKelvin
ĠDawn
ĠRevolutionary
suggest
Ġmoder
ĠsrfAttach
ĠRÃ©
ĠCompact
Today
Ġfreedoms
Ġdeprived
Scene
#$
ĠSearch
Ironically
cycle
arranted
ĠTrue
ĠDesire
ateur
Ġmass
Ġgag
wait
bing
Ġconcept
illon
Ask
ĠVacc
oh
ĠExec
Ġcollagen
Ġ99
Ġinform
Ġ444
Ġadjusted
ĠWarner
ĠSPR
Aw
Ġacet
ĠENG
ench
ĠCycl
doesn
ĠArchdemon
Ġ10
ĠOttawa
children
Ġpicks
anyon
Ġcrawling
Ġducks
Ġcoron
Plug
ĠWinter
I
Ġbloc
Ġoverlapping
Ġradios
ĠSlightly
ĠExc
akers
ĠDAM
=(
Ġfused
Ġmicrobes
ĠHundred
standing
Ġiso
ĠPi
manuel
Ġ27
ĠSettings
Ġbol
ĠRef
Ġplatinum
ventional
Ġleans
ĠTitans
":-
Ġremember
ĠKirst
ĠOz
aturday
Ġtert
ocus
ĠRockets
Ã©s
idents
Ġcylinders
azes
Ġsuspended
37
ĠSweeney
ĠBrach
ĠPsych
ĠClicker
Pause
207
conv
Ġadviser
Ġhier
Ġcanceled
apps
Ġreviewed
Ġhalfway
ĠAlchemy
Ġmelan
Ġcartridges
Ap
pod
said
RELATED
ĠEcuador
lein
key
ĠUnlock
Ġwills
Ġreliever
Ġpoorer
iliated
&
Ġdeclaration
Ġenum
ossom
usha
Ġkindergarten
ĠDys
Ġpercept
ĠCanal
ĠHiro
isition
FD
=#
Ġdisposable
Ġads
Ġeyewitness
Ġswapping
Ġlions
cano
ĠSteele
ĠRankings
ĠFor
Ġdecent
cue
units
ottesville
Ġpudding
Ġbarbecue
ĠAppendix
noon
Lin
Ġstroll
elo
pull
assist
Ġmarvel
ĠHats
ync
Ġcorrespondence
Ġicons
Îº
Gaza
Ġ'(
angler
Ġattacks
skirts
contact
Ġtime
Ġplay
omorph
ĠMad
Ġsofter
Ġbiking
Ġ261
Ġboosting
ĠSUM
Ġsatisfactory
Ġsetbacks
Ġequipment
Sword
Ġsynopsis
ITION
fine
ĠStern
################################
anks
Ġanywhere
Ġquestions
num
aea
International
ENCY
ourn
ĠHansen
Ġ1100
Ġwoo
Ġh
friend
Ġpromote
Ġhacks
ĠAuckland
nan
ĠDomain
Ġcontinually
Ġextremes
ĠSasuke
ĠGerard
rimination
ĠFull
Ġnarrowed
Ġlaunch
emen
Ġcontrary
emp
ĠBALL
Ġcampus
ĠClippers
ipient
Ġasynchronous
Ġcalf
erguson
sch
lvl
cm
Ġhealthy
Ġsuccessive
Ġrushed
iddle
Silver
ĠLX
Que
Ġloud
ĠKaz
dullah
IGN
Ġtrademarks
Ġoppression
Ġairports
Ġbreathtaking
ĠRiding
iste
Ġserving
Ġoverwhelming
ys
crafted
ĠLancet
ĠRichmond
Ġunlawful
Ġcaste
lected
Ġsaddened
</
ĠHodg
ĠOn
held
Ġdental
ĠNeuro
Ġtolerant
Ġgeographically
Ġpulp
cats
Ġreson
Ġau
Ġlocate
Ġpetitions
Ġoutreach
enough
iology
ĠWhe
Nazis
ĠTHESE
Ġsafely
ĠSponge
Ġdeliber
Ġsomew
Ġstaples
oris
Z
riter
Ġfut
iences
Ġovershadowed
anic
Ġchairman
ryce
terness
Ġbreadth
ĠTos
Destroy
ĠPeople
Ġace
Ġdetain
Ġcorpses
ĠAbedin
ĠBrand
Ġbackdoor
kers
containing
ĠSergei
bottom
ĠVerify
akening
ĠCIS
Rect
ĠElse
Ġrubbish
Ġdipping
ĠDodgers
Ġnotably
mL
ĠMaul
536
Ġmovements
ĠVIEW
uel
ĠHeist
ishops
Ġinternationally
Ġundermin
umpy
Ġlipid
elligence
Ġpersonal
Ġpioneered
ĠNid
Ġsym
Ġdenounced
Nar
ries
esley
Ġsts
Ġunveiled
Ġcolour
ĠDesigner
ĠEntity
ĠLip
DVD
Ġsnow
Ġfulfillment
Ġabst
Ġginger
ĠExcept
Ġsignificance
Ġprominence
Site
Ġdiscern
Ġcatalyst
ĠXan
Ġrealization
49
Send
develop
Follow
ĠParade
ĠImprovement
1964
ires
activation
Ġbitter
ĠCtrl
competitive
Ġpoliticians
ĠSok
appointed
ĠShine
Ġ._
immigration
Adjust
Ġteamwork
Ġprostitution
ĠCed
dc
=-=-=-=-
ĠBrotherhood
Want
script
Ġfue
ĠGrizzlies
Blade
Speaking
Ġbudget
Ġtract
igious
Dad
ĠHUN
ĠGingrich
ĠImam
oney
ĠLa
Ġtub
ricted
Ġbreast
anon
Ġheight
Ġlod
ĠTimothy
Ġ1901
Ġquietly
Ġdistracting
Ġcoefficients
yan
Ġneighbors
ĠEzekiel
ongh
Rail
Bonus
Are
Ġindependent
thia
German
ĠCustomers
Ġhapl
Ġgoblin
Supported
Ġsecrecy
Ġslid
Ġtravel
cyl
atta
Male
phenomen
blems
ĠINF
ĠFunction
?:
ĠVP
riched
ĠWeapons
Ġstatistically
jp
inant
Article
Ġmay
ĠRailway
Ġcostumes
ĠPrevious
Ġtex
Ġpump
ĠThin
ĠMethodist
seless
Ġfuels
aign
1996
Ġapparent
Ġnewsletters
ĠXCOM
killer
test
]),
752
olation
?)
Tok
Ġunified
ates
secution
Ġinvest
Ġsells
352
Ġcomparative
ĠGrateful
iscovery
Ġwor
Ġventilation
ESH
cl
ĠCASE
asc
Ġcle
Ġsex
Ġproposals
ĠPlace
Ġhighway
inqu
Spring
Ġallocation
Ġ433
money
grow
ĠKubrick
mAh
ĠBa
ĠBrowns
Ġarous
Ġgenerously
455
Ġembed
akia
ĠRespond
ĠGoodbye
Ġcorrectness
ospons
ĠBin
anga
214
ĠPhilippine
Ġfan
ĠPlant
Ġduck
Ġchill
699
Ġconscientious
UA
Ġwasn
Ġecosystem
Ġbustling
ĠSyd
Ġwhisper
Weather
Ġwearing
emouth
Ġchance
Ġbras
Ġsten
ensical
ĠInstructions
ĠEVE
achy
ist
ENE
Ġfragment
ĠMTV
plet
ĠRR
anton
Ġegregious
ĠBike
Ġseism
Ġencompasses
ĠCenter
Ġundercut
Ġdecl
Ġprescribe
nil
Ġreign
amily
berman
Ġciting
radical
wh
En
Ġ396
although
Ġsummarizes
ĠProducer
supported
laus
ĠSwan
bishop
Abstract
Ġcompartment
Ġfret
Cart
othermal
zin
ĠUSPS
Ġgarg
oriented
Ġworkplaces
Ġalbeit
ĠGodzilla
Ġbrowsers
batch
Ġ1967
Rec
Politics
Hardware
Ġnud
Ġtests
Ġdrip
resy
027
Ġoverwrite
Ġrelates
Ġdelicious
Ġaspiring
p
Ġbooted
ĠCOMPLE
gun
omet
world
prising
Ġlatt
Ġreleased
bnb
ĠObs
rick
ĠEst
Ġmods
Ġshapes
ĠRoute
ĠPinterest
Phone
ĠKatie
Ġoverthrow
Ġbeers
arijuana
Ġadding
023
ĠNULL
enses
Ġinfertility
ĠVo
Ġlapse
az
Ġtumor
Ġbrutal
Ġadvertising
real
Ġacupuncture
used
Ġrestrain
Ġwatering
ĠZurich
igr
community
Progress
crime
Gy
Ġrights
Ġammo
ĠVIS
Ġmaniac
Ġpans
ĠSem
Ġgratification
NA
Ġadditives
Ġphilosoph
Whatever
ĠPengu
Ġtomatoes
Ability
Ġmodifier
ĠSak
Ġhorrible
ĠPic
Ġcores
ython
Ġcont
shirts
Ġmanifestation
Ã¥
Requ
ĠSimulation
Ġaudio
rentices
Ġ26
Ġmodeled
Interest
otaur
Ġlace
compatible
Ġobjects
sections
Ġauthorized
ĠRanch
ĠWhilst
LC
Ġpayment
Ġdemocratically
ĠJeanne
Di
ĠDear
Ġappreci
Ġexplan
Ġindist
Prov
inen
ĠDegree
videogame
ĠWorse
END
Ġmid
Ġmemor
cr
bia
ĠJ
ĠStandards
Ġmerger
ĠJerome
Ġpulmonary
ĠMongo
Ġfilling
Ġstares
Mass
Ġ2012
ĠMigration
ĠSeek
Ġcaching
avour
Ġrelocated
Larry
Along
orr
Ġdispute
Setting
ango
)/
Ġhumans
Ġmonarch
(-
ĠAutob
Ġ2021
Liber
ĠUber
496
Letter
Against
idently
Hide
Ġeditors
ĠAnyone
ĠCM
Ġutilizes
ĠLouis
Ġburst
Ġdigits
399
ĠMoons
ĠTrainer
Ġformulas
Socket
ptives
ĠFE
ĠChampions
ĠIU
ĠDaniels
Ġlive
Ġgraph
billion
chest
ĠNotably
Ġnecessity
Ġmentally
Ġestab
Ġpartnerships
Why
ĠAAC
ĠJordanian
Ġstabilization
ĠReact
ĠMIN
489
Ġmagnets
Ġcataly
Ġpadding
Ġthrottle
Ġpredicting
ĠBosh
Ġsimulac
Ġankles
ĠHound
ĠDefensive
Ġloot
ĠThieves
Ġtut
ĠKeith
369
Scient
Ġsip
Ġtown
venient
ĠWeinstein
ĠBerkshire
TF
Syn
AUD
ĠAttend
ĠUkraine
ĠDublin
Ġsublime
ĠSi
"><
lev
Ġindeed
Ġhandgun
Ġdisagree
ragon
ĠNew
Ġruntime
finals
Ġadequately
Ġgenomes
ĠWrong
ĠTent
Ġdecay
ĠSuk
ĠDiesel
ĠSummoner
ĠKas
onson
ĠpartName
Ġmammalian
Jon
annel
Ġcha
ĠUM
llo
Ġcompromising
Ġenormously
Ġdramatically
PT
Ġrevolving
Ġadventure
Ġentitled
Ġsummer
ĠStanford
Improved
050
ĠBuddhism
Ġsust
pson
Ġtrained
ĠParticipant
odi
Almost
Directory
Ġtracker
Ġgentlemen
reetings
Ġvolleyball
selves
rawled
ãĤ¿
Ġrav
incent
ĠWalt
umbs
Ġyen
ĠEmblem
arsity
ĠKris
ĠThames
740
Ġpropell
under
Ġconstructive
stairs
Ġparties
Ġelectorate
ĠKier
NE
Ġextraction
ĠRobot
441
ĠMcGr
1978
Ġtrain
Ġregeneration
ĠâĿ
ĠLl
Ġtoxicity
itual
lymp
ĠGau
Ġcurrent
Ġparcels
Ġprecise
Ġmant
Ġrelating
ĠTrent
osen
Ġkissing
Ġfined
Ġcockpit
ain
Ã¶r
ĠPlaint
Ġwiki
Ġwielded
Ġselfish
ptions
Ġremarkable
Ġaccountant
Ġsucking
ĠEmerson
Ġcontempor
Ġencouraging
Minimum
ĠDirectorate
Ġrenders
ĠLawyers
Ġunparalleled
loe
Ġmemory
eree
Snake
Ġdehyd
Ġwin
aples
felt
ĠTracking
ĠWarn
ĠMacron
Ġcrochet
ĠKash
sign
iques
ogen
bah
Ġsmugg
ĠMalays
ĠUseful
Ġboiled
Ġpreventing
Ġsubstitute
Ġblamed
ĠChristie
brates
ĠGamerGate
Ġroles
ĠLaz
init
Ġwidest
ĠManor
ĠBook
Math
ĠJet
adle
Ġcapsule
Ġmortality
spection
Ġstating
rations
ĠWeiss
ĠDonkey
Critical
Ġas
Ġcz
MN
ĠElectronic
child
Ġscatter
ickets
storm
Ġdepict
Ġunused
Ġ258
Ġbees
Ġimprobable
Ġunquestion
896
Ġspan
ratulations
factor
Ġmatched
MAR
Ġrs
Ġè£ıç
Ġpermitted
}"
Ġfigured
Ġnames
Ġtrusted
Ġ1944
Ġappreciation
ivable
ĠHera
Ġdiscipl
ĠIntern
liest
Ġcomposite
åĮ
LIST
Ġki
Ġfaire
Ġ780
Ġdrilled
Ġpolic
Ġsitting
Ġexploration
ĠHY
Ġbranding
Ġspectral
ormon
described
mind
ĠFalling
ĠCertified
Ta
Ġredress
ĠCanadians
ibo
idia
Ġbacks
digit
Ġdeterrence
ĠMinister
Ġboarded
stories
Ġviewpoints
ĠRJ
Ġimmersed
Secondly
Call
Ġdecade
Ġarmed
Ġhars
instein
ĠOPEC
ĠZah
Books
Palest
Artist
panic
Ġbureaucrats
plan
ĠOutside
ĠBD
Ġbalancing
Ġguts
Ġanim
ONY
ĠAmbro
ĠHarbor
Ġthroats
Ġcottage
Ġdeleting
Ġ305
ĠChrom
Ġcry
Ġdreaming
Ġ380
ĠDarren
Ġprogressive
future
president
Ġcompanions
815
Ġore
ĠDual
Ġdefeating
Ġbut
Ġboost
ĠSeeing
Ġfriendship
cyclopedia
Ġinn
ĠGross
Ġpiercing
Ġapt
ĠHuawei
Ġmult
istor
ĠNEED
Ġselect
Ġshut
ãĥĩãĤ£
ĠIraq
ĠWarfare
Ġfluctuations
ĠClock
Ġbar
ĠMadagascar
Ġlicense
Ġwisdom
ĠStella
Ġ1200
ĠGoal
ĠBEFORE
Detailed
ĠBride
ĠWITH
ĠHUGE
Ġslammed
628
reen
bearing
Ġunbelievably
Ġasserts
Ġdescendants
Ġevict
Ġnetwork
Ġfriend
fac
Ġcav
Ãī
Ġsubsections
UI
Ġquarters
ĠJune
ĠSapp
ify
Ġstrongh
Wisconsin
ĠDiana
housing
dated
ĸļ
Balance
ĠLen
Similarly
À
Ġcrazy
Wo
Ġoutraged
Ġslopes
ĠAdelaide
ĠBav
ECTION
aunder
Ġraises
Testing
aternity
')
Ġstage
Ġprocedural
Ġprincipally
Ġbite
Ġimagined
019
incerity
umo
Ġsexually
Ġcameras
yle
ĠEzek
Sorry
ĠDaredevil
Ġrefin
Ġunle
ĠGuerrero
ĠDusk
ĠBuy
ĠBlacks
Ġcolle
ĠTF
Ġprominently
Ġdiapers
ĠGly
Ġcompetition
KEN
ropolis
Ġignores
reading
forced
yp
ĠEdge
Command
Ġgrandma
Ġcomeback
iah
Ġdescribes
Ġunic
ĠItal
Ġphotographers
ĠGene
Ġdeport
security
choice
Ġincl
Ġpri
Ġannotation
ĠParadise
Ġgonna
Ġsegment
ĠRick
Ġscare
ĠSamoa
ĠBackup
Ġbabe
group
Emergency
essert
ĠNonetheless
Ġneuronal
Ġinverse
Ġformats
658
Ġmuzzle
";
Ġslew
Ġbuds
Ġexpressly
Ġenticing
Tri
Ġrevel
Ġhosp
Ġscripting
Ġie
530
aund
arians
ĠDad
gro
ĠCavaliers
ĠGou
ĠHK
Ġspecified
ĠBullet
yers
ĠSha
Lost
âĸł
iscovered
Ġcue
Ġfiercely
ĠGate
ĠOwners
Ġliv
Ġacoustic
?????-?????-
Ġvictorious
ĠIDE
Room
tab
718
itty
Ġtax
ISE
aring
ĠDylan
ĠOval
ĠFIRST
fleet
Ġpostings
Ġdiscriminated
629
Ġneighboring
mouth
ĠNicholas
Ġcross
Press
School
Ġwalk
RAY
fram
Ġovarian
Ġrecognizing
Ġadapt
Ġrepaired
Ġalumni
ork
.}
Ġmeasurements
Ġvi
ĠFollowing
awed
ĠSuzuki
Ġsalute
fters
SIM
ĠTrain
ĠRomero
side
Ġdowns
ĠTC
Ġironically
ĠAAP
oward
posium
Ġrecapt
Ġcuriously
noticed
ĠPaulo
ĠTonight
Ġconquered
orious
vous
ĠHot
iosyncr
Iron
Ever
150
ĠRwanda
ĠKra
Ġbean
Ġcred
priv
idious
Ġvolunt
kiss
Ġkindness
urable
ogl
ĠMarketplace
Ġmemories
Ġaltered
Ġaccredited
::::
itia
ĠCross
ĠMaya
Book
108
ĠBra
ĠBlossom
ĠGandhi
Ġmutations
ĠâĶĤ
entious
worldly
Ġvalue
Ġcustomizable
Ġearth
Ġslic
ĠCPC
Ġidentical
ĠSakura
990
ĠHebdo
oad
capt
ĠWe
Ġshowcase
Ġ1440
register
ĠBetween
Ġ490
oled
Ġhampered
Ġbounds
Ġnightly
Ġtwelve
ĠVari
ises
ĠRin
Ġfoul
Ġsmarter
Ġidentification
âĢ
Ġnationalism
Ġdiscard
517
inese
ted
Ġeager
ĠBreed
350
Ġhappiest
Ġnick
ĠKashmir
ĠLake
Ġ354
iblings
Ġadvent
Ġtailored
reek
Ġassault
Ġpuzzle
ears
ĠCamp
Ġalliance
Float
())
ĠUniversities
Ġimproperly
Ġredist
ĠImmigration
196
ĠFRI
ĠJuan
ĠTrilogy
ailability
Ġsilent
Ġjer
Ġunfortunate
Ġgrows
less
ĠPlasma
ĠTechnician
IB
bern
Ġinept
erved
Ġamuse
Ġexpressions
Ġapartheid
Ġbathing
Ġdairy
Ġrepud
ĠPosition
Ġhospitals
Ġconversion
Ġfaculties
enn
ĠBiology
isc
Ġreunited
zees
ĠMore
reports
Ġunorthodox
Ã¢
ĠCarpenter
ients
Ġ340
ĠBraun
avement
ĠRover
Bytes
ama
Ġvaccinated
ĠZack
ĠConquest
ĠHier
Ġtrance
Ġslamming
Ġagon
File
UP
utan
Ġabused
Ġaccumulated
Micro
Ġexclaimed
Ġhack
Ġattractions
Ġsimplify
Congratulations
ĠTODAY
ĠTarget
Ġreasonably
ĠRESP
clips
ĠJa
Ġpas
ohl
irk
seek
ĠRead
Ġadj
ĠYus
ĠRepl
Ġconclusive
Ġextinguished
ĠCond
ĠDirector
Ġretake
Ġal
ĠSpect
Ġtablet
ĠEST
ĠAlbert
Ġdangerously
Ġsparing
Earn
ĠPam
Ġgenius
ĠElite
ĠCurrent
Ġfairy
ĠLeafs
289
ĠDa
Ġnoticing
012
ĠRac
Lv
ĠLaw
Ġhal
Iter
uras
Ġprolific
ĠHancock
ãĥ¥
olis
ATIONS
ual
Ġdecom
ĠChimera
rs
ĠLE
Blu
ĠHazard
Technical
ĠTang
Ġutmost
Ġsecular
ĠFL
gressive
ĠCVE
ĠChancellor
677
ĠSex
Ġsloppy
Ġcoronary
Ġessentials
Ġoperator
Ġsplash
ĠBacon
ĠLinda
ifiable
ĠGrenade
Ġconvin
Ġbumped
Ġconfir
Ġgrandchildren
286
Ġcontinental
ĠDolphin
large
sur
ĠWalter
OOD
Ġwiden
Ġmolecule
>
Ġcongratulated
Ġtenants
Ġrev
November
Ġnearest
Ġaccusation
oulos
abbit
hered
ĠCarly
ĠVirus
ied
ĠVice
Ġsimilar
117
Rare
Ġdeprivation
rection
Ġblack
Ġstuffed
ĠBeacon
Ġdaemon
ĠNah
Normally
ĠIce
Ġdrained
FY
ğ
ĠRex
boot
YD
Hyper
ĠConcent
Ġcolored
Ġprenatal
ĠPatients
laden
Ġspies
Ġtoddlers
Ġneo
Ġhumorous
ave
Ġdrawn
ĠTrout
ĠCoff
Ġemb
Ġsoluble
ĠRum
ĠOil
ĠDrawn
Ġbloodstream
Ġperfection
ĠLists
Ġwater
ĠAtlanta
jin
ĠCLASS
ĠEnds
ĠCurrently
upiter
ĠCelt
oles
rik
Ġcrotch
actual
abal
hers
Ġanonym
ĠExcellence
ĠCove
ĠVita
Ġterm
ipop
ijuana
repl
lite
Ġdictionary
Ġdesktop
ĠAnswer
Ġuniqueness
Ġvigilance
EV
ĠVu
ĠBrain
ĠPlayers
oken
ĠPresbyter
ĠMister
Ġinfused
Ġrestraining
xxxtentacion
essing
ĠPalestine
ĠREL
Shut
hof
Ġoptimize
ĠApproximately
Ġ35
ental
Ġok
ocry
ĠHawk
RAFT
ucha
Ġcorn
cpu
arers
Ġshatter
ãģ
Ġmathematics
aire
252
Ġfisheries
ĠArgentina
Ġ244
fifth
des
Ġrice
Override
ĠMetropolitan
Ġported
866
ĠFar
Ġprisoners
Walk
ĠUnt
rage
them
Ġyouth
Ġâľ
ĠBermuda
Ġpurs
azz
Brew
ĠCostco
picking
Ġpeer
rike
attribute
Ġinscribed
Ġsent
deb
ĠImmortal
ĠCrossRef
achev
alion
cham
82
Ġtastes
Ġclutch
Ġtree
GS
ĠShib
Ġlikes
ĠVIII
Ġrag
OLOGY
ĠInqu
Ġwounding
ĠBroadcasting
Ġillustrate
Ġconnectors
attery
Ġvivid
Ġyesterday
Bed
Ġinterim
Ġlegions
ĠCanterbury
ĠCorinth
Ġskirt
ĠAthena
Ġdrowning
ĠDoor
Ġprick
ĠNationals
pointers
Steam
Ġrugby
Ġdispersed
Ant
polit
Ġprolonged
Ġconducive
ĠOffer
aker
mare
Ġliterally
cars
Â»
kid
ĵ
atellite
Alright
Ġpept
Ġworldly
ĠHOW
Ġtablets
RB
ĠHerrera
ĠBolt
Ġff
aughs
--+
ded
Ġspeakers
ÂłÂłÂłÂł
ĠMatrix
aim
fle
Ġviz
Ġchamp
Ġlead
Button
Ġundefeated
ãĥ¬
Ġjeopard
Ġstrut
listed
ĠExploration
ĠFlag
Ġfails
Ġliberals
ĠColonial
Ġuniversity
ĠRebirth
ĠParents
ĠNVIDIA
wire
ĠClin
Monster
Ġbreach
ĠMono
ĠMozilla
ĠOnes
Ġcompact
ĠÃĸ
ĠHIM
Ġkeys
anu
helle
1967
Ġstimuli
Ġtraumatic
Ġmassacres
Manufact
owered
Ġ149
ĠNovel
ĠRelated
ĠMens
Star
ĠRuins
Ġreporting
Ġindulge
Ġcess
Ġreplacement
Ġrepetitive
immigrant
Ġcarts
Ġplaster
Ġspokes
245
silver
Ġdepress
ainted
çĽ
Ġnatural
estead
Questions
ĠBegins
ĠImprove
Vision
Ġmosa
Brien
ĠPenn
ember
Ġgor
VG
Ġsax
Ġhalf
clip
ĠMall
Ġeyel
Measure
Array
Ġgore
994
iat
ĠMinor
ĠLafayette
Walker
Ġorganizer
Ġcaves
Tai
Ġdoor
associated
ge
349
akedown
By
Ġproceed
oder
akespeare
Ġparade
ĠANY
effects
ĠNames
rera
Ġpid
uary
Bob
Ġseated
Ġ1895
ĠFerdinand
erk
Oper
Key
Adapt
Ġexploding
atural
à¹
Ġangel
xit
Ġsalmon
Ġwee
ĠAmmunition
Ġsubmission
Ġdi
IQ
ĠMara
Ġproportional
OC
Ġant
Ġmortgage
ĠInstit
Romania
Ġpowerfully
angers
urdy
Ġprimary
Ġbetting
Ġoverseeing
rey
Ġunus
Ġdstg
ĠHaku
ĠAbraham
Ġbuzzing
loop
Ġwork
RL
yright
Ġrevealed
ĠSlim
ĠSeattle
ielding
undai
ĠDowning
INTON
Ġlatency
ĠFirm
ĠCRC
ĠContra
aping
Ġplain
Ġbabys
Ġeval
ĠHawai
Ġroundup
Ġobscure
Ġcharacter
ĠFloating
Ġiniti
Ġabolition
Ġsamurai
ĠBB
ĠYahoo
pse
Ġaffair
ĠITV
ĠInvestigations
actus
ĠVel
Ĵ
iage
appy
Romanian
ĠGardner
Ġground
data
Ġma
Ġwritings
Ġtotalitarian
ĠGAME
hn
political
Ġsugar
Relations
ortmund
che
ĠArchbishop
Ġsurfaced
ademic
ĠProb
888
software
555
ĠCat
ĠChennai
ĠSafari
Ġegalitarian
ĠPatterns
reating
Ġchromosomes
ĠALWAYS
anky
ĠPokÃ©
orescent
Ġus
ĠEngineer
ĠYaz
bitcoin
Ġaddict
ĠKNOW
UTERS
Ġintegrating
031
Ġabnorm
uter
Ġneutral
rongh
Ġreceptive
ê
Ġgathers
ĠStand
Performance
Ġinfection
tops
Ġconsultation
Ġshredded
ĠBoxing
connect
ĠTour
ĠRegular
photos
Clean
Goal
Ġnerd
Ġbadge
CEO
Ġtact
Ġconsequences
Ġstrict
';
Ġelse
2007
Ġinterviewing
orough
Ġautopsy
ĠIris
ĠArmor
Ġspike
Ġreprint
rek
Ġblaze
base
Ġpronunciation
TING
international
¬
Ġantibodies
Ġio
Ġimpractical
Ġdoll
Ġaffects
ĠLET
Ġseparation
nce
424
nexpected
Ġshoulder
ĠAFB
Ġspoon
Ġglacier
Ġare
ĠEven
Ġcharts
430
Ġtenure
çĶŁ
Card
ĠChat
Ġ163
Ġreckless
checking
Democratic
Ġunsc
Ġflawless
Ġdormant
Ġdances
Ġsubscribed
Ġauthentication
ode
aspberry
section
pling
asel
Ġmeaning
ĠCondition
ottage
Ġdeceived
sk
Done
ĠShinji
Ġprecisely
Ġimplanted
ĠDroid
umper
Ġevid
Gary
Ġredef
inite
Ġfiat
ĠMusical
Ġmodify
Ġswirl
ĠQatar
getic
Ġcharms
ĠHelena
Ġchamber
Ġarr
Ġfeeding
adapt
Target
::
Ġfascinating
Ġ1930
ospital
ĠObserv
often
ĠAxel
Ġshrinking
Ġba
II
ĠTanks
ĠMuslims
Ïģ
Ġnun
Chapter
ĠResolution
falls
ĠWid
Ġpraising
Ġstimulus
ĠConnect
Cod
ĠNon
fuel
Ġguest
Ġcans
ĠAstro
Veter
·
ĠSurvival
Ġyouths
Parents
ances
Ġcowboy
Ġuncommon
Ġ216
Ġovercrowd
Ġgained
ĠTsu
Ġrevamped
ĠPunjab
pronoun
ĠUAE
Ġsports
ql
Ġqualifications
ctx
ĠHeavy
GF
Ġoppress
ĠHere
iy
Dual
pperc
Ġinsomnia
remove
Ġbreakfast
Jet
Ġcomed
Ġabout
Ġcommanded
RAL
Kid
Ġeleg
FUL
ĠPCR
Ġmoth
Supporters
Ġunderstood
Ġkinds
raphic
Filename
Ġguitarist
BD
ques
420
Ġlung
stock
Ģ
ala
Ġelsewhere
asses
ĠHels
627
ĠRepeat
ĠPillar
ĠInterview
Ġchemotherapy
eness
Ġcredibility
Ġhideous
xx
amps
ĠObi
Ġtemplate
ĠSketch
DAQ
join
umn
funded
Ġawait
ĠDracula
PC
Ġcrafts
?'
Ġoutage
ĠCoconut
Ġpoly
ERS
ĠDP
emies
ronics
forth
Ġcurtains
Ġprecursor
ĠTiff
ents
ĠRus
ranked
ĠUnch
Ġho
âĢĳ
Ġavoiding
ĠFrog
Ġaccomplish
Ġgentle
stown
ĠKw
Ġparanoia
Allows
Ward
Ġgen
Ġmissionary
Ġinvestigator
chell
Ġ105
ascript
Ġvictories
Ġgalaxy
Ġawa
aution
Ġearlier
ĠWelcome
Ġinvent
ritch
accessible
Qu
quiet
112
hap
ĠBenefit
ĠFeatures
jack
Ġdescribed
Ġshaman
Ò
Ġadopted
Ġsuing
ĠBlueprint
Ġselves
ĠBoys
Ġdisclose
ALT
ĠCorn
ĠOlson
Standard
spr
Ġindis
Ġhierarch
Ġmidday
ĠRPC
Ġmountain
Ġtrader
edi
anta
ĠWin
ablished
aters
Ġgeometry
Ġ429
Off
ĠCurve
Ġgovernance
country
umenthal
Ġfluent
Ġpredecessor
ĠXen
Ġdistributions
eared
ĠTaste
ĠSkin
Ġsailors
lu
ARM
gam
incible
ĠMinion
enic
ĠAgility
ĠRuin
ĠPrinciple
backs
Ġmaternity
head
Ġgoal
uster
ĠFear
ĠPhys
arabian
Ġmonstrous
Ġcrying
pic
Ġgenerated
Ġtattoos
ĠSoros
ĠBalls
were
casters
details
Ġvalve
655
ãģ§
Ġcocktail
ĠColin
ĠReverse
campaign
ĠBars
ounce
ĠHolland
Ġcaloric
ĠMichele
rained
ĠZone
ĠCOURT
assert
Ġgrocer
ĠRodriguez
ĠFreeze
ĠDutch
ĠArrest
COLOR
Ġuniformly
ĠEstimated
Ġpigeon
ĠCraw
olition
ĠKodi
ach
Ġstring
Ġholy
eless
ennett
Ġtail
umat
Ġscale
Obviously
Ġimplementation
Ġstaunch
Ã±a
ĠPAX
Rank
Ġfin
aligned
abby
"-
ĠGeorg
middle
uro
Ġwon
Ġsusceptibility
Ġeconomist
eas
Ġtheorists
ings
Ġpolymorph
Kids
Ġgenders
Ġraping
ĠNZ
ĠKenneth
ĠWHAT
ĠBul
Ġinhibition
Ġtunnel
Ġcabin
Ġversa
Ġearners
Ġtransforms
Ġpersu
Ġcurb
Ð¼
ustration
ĠBrighton
Storm
Ġlaugh
actions
OSE
ifi
ĠOverwatch
Ġbaseman
teness
Ġjobs
Ġmol
Ġincompatible
ste
Ġuneven
ĠChatt
Ġrevered
Offset
Ġvolumes
ĠMessiah
ulates
measures
ĠDirections
ĠChase
Ġfirst
Ġperfume
ĠeSports
ĠEvidence
Ġbarrels
Ġcommand
Sin
ĠJarrett
ĠHegel
vr
Ġlegion
Ġimb
Built
Ġpengu
Aug
ĠJFK
ĠKaty
TB
Ġattentive
Ġindirectly
Ġgown
Executive
LB
Ġcautiously
Ġcytok
ALS
Ġperceive
ado
Ġhour
irtual
Ġ'/
Ġcamps
Come
Scan
Ġmindset
ĠDawson
Pub
Ġlarger
Ġtob
Ġ=================================
Torrent
{"
Ġverbally
ĠPo
Ġchast
Ġnets
ĠAnswers
ĠSturgeon
Ġpoliceman
ĠAbortion
STATE
Ġpiano
Tele
George
Ring
535
2017
ĠIrwin
Ġfathers
ĠClancy
ĠXIV
tor
Ġshootout
ĠDir
lest
Tenn
Ġseq
Ġdenotes
ĠChemistry
Ġcattle
ĠBELOW
ĠCopyright
ihad
Ġyo
Ġparish
Ġsorce
Ġdetectable
ĠKom
ĠScan
gon
ĠSpecific
Ġfingerprints
ĠWood
Ġthorn
ĠRyder
Ġunstoppable
Ġpatched
ĠSang
road
Ġsafegu
elt
Ġrecovered
Ġtaxpayers
ocate
239
Known
Ġspoof
AD
Ġmystery
ĠShots
380
eco
dream
Training
ĠTerminal
Ġdis
lly
ĠWinn
rette
Ġpersonnel
itored
Ġagre
Ġperiodically
erning
Ġ94
Ġlets
Ġ00000000
ĠKim
nine
ĠSkip
ĳå£«
repre
ĠGrey
mun
Ġrevoke
Ġton
padding
numbered
Ġminister
ĠLand
ĠFool
ĠStrauss
Late
Ø¨
sha
Ġpositives
nir
Ġregiment
Ġdismantling
ulsion
Ġcohort
Ġgreater
OM
ĠLine
Side
ĠCDC
Ġrall
====
Ġtheaters
Ġlettuce
\",
Ġripple
Ġimpartial
Ġneglig
ĠSelection
Ġderailed
Ġflaws
Collect
eren
uit
ĠYear
Ġmultinational
bal
Ġbuffalo
ĠEston
Ġdiscont
Ġme
Ġencode
b
ĠWashington
Ġsport
Europe
Ġtranspl
Style
Ġfru
ĠSug
Ġbip
Ġire
ĠAman
Ġpork
Ġ(),
ĠChange
ĠBilly
[/
,-
Ġexalted
Ġuint
bats
ĠRiyadh
Ġcomplex
ĠOdd
Ġmicrophones
Ġlooting
Ġgreed
ĠGone
avi
ascade
ĠRooms
Ġexch
assing
Ġether
ĠVilla
ĠPeters
ĠSiri
ĠTHE
Ġsmoothly
options
ĠANC
ĠBai
odor
ĠKira
Ġlies
ĠCarolyn
Ġquickly
NL
][/
government
Ġoily
Sc
writ
Ã¡n
Ġ61
ĠPhotographer
Ġpresidential
ĠIter
ĠWinged
forums
Ġunpaid
osite
Ġstrengthen
ĠMay
Ġcontaining
Ġcaric
ĠClaims
Ġmourn
idget
Ġfigure
Ġinspection
ĠBaron
Ġpercentages
Ġhandic
IZ
Ġfate
Ġglance
Ġrecordings
Ġsuspic
tags
ĠDuchess
ĠByzantine
ĠProfessional
Ġartillery
ambo
ĠRobin
ãĤ¨ãĥ«
Ġthermal
ĠDemocr
Release
Ġ53
Ġservings
voice
Ġdoom
Semitism
awatts
ETA
Ġcharger
beard
Ġcase
Florida
ĠMonroe
Secretary
isk
aneous
Ġcensored
ĠKurt
ĠGorge
ĠPhot
Ġclicks
Ġcleans
Dest
ĠGalaxy
ĠHastings
Accessory
Ġreminiscent
ochemistry
Ġfind
Intern
Ġshin
ĠBonnie
ssl
ĠTelegram
ardo
Clock
Ġheadaches
imura
ĠCelebr
bold
Ġ273
Ġdesirable
wild
ĠMotion
×¨
:]
Crew
ĠEbola
ĠLara
Ġbusy
ĠStorm
Baltimore
Ġchaotic
lap
Ġmuttered
:-
Forward
Ġsoutheast
ĠRelations
nsic
Ġimages
ĠNRL
Ġdys
sky
Ġhating
ĠCollection
atana
Ġber
Ġask
where
Police
Fra
ĠJur
Ġtechnical
RED
AB
Ġbatteries
'-
Ġsmoother
send
atalie
ibraries
ĠChip
yon
forcing
Ġviol
ido
Ġ311
Ġpasswords
Ġpenet
ĠRutgers
Ġburying
Ġspate
Ġhaste
ĠPilgrim
ĠParkinson
Ġdemonstrations
Ġslides
ĠSniper
Ġflung
ĠANGEL
Ġshaken
apor
Ġpsychologists
Ġ115
tch
omes
ĠPair
Ġmeanwhile
Ġdevoid
Ing
ĠNicarag
Ġwarfare
ĠCambridge
Ġuseful
HT
Ġconced
boats
Ġwalks
Ġstripping
UFC
Ġoverlay
medical
ĠLINK
ĠTheodore
Ġlich
ĠCel
Ġauction
Ġmantle
Ġmessed
Ġcomplicit
Ġsleeps
ĠPeck
appa
Sel
ĠFly
ĠProud
ĠKam
Ġexperienced
Ġfeast
ĠSU
Ġ143
ĠSmart
Ġappe
Range
hardt
ĠLal
sofar
osis
682
ĠBuckley
Neither
ĠMakoto
Ġfilm
ĠRetrieved
Ġpoke
onial
ĠÂ«
Ġculmination
Ġwitness
PDATED
Ġwritten
ĠNL
Pal
Ġconduit
Ġfever
Ġencaps
Transform
Capture
ĠMonument
oples
]+
vik
Ġunst
ĠAll
TP
328
ission
Ġresponding
Ġislands
resp
apesh
eret
Ġhang
Ġleaked
ĠAnders
>>>
Ġstimul
Ġretain
Sch
Stat
ree
Pod
ĠAlma
Nor
ĠJeremiah
styles
Second
ĠPamela
ĠQuestions
Ġbenefic
Ko
Ġappell
Ġcarriers
person
Thirty
Ġencount
ĠHaven
ĠYa
Ġmethod
Ġcatalogue
Ġimplant
Ġsolicitation
Greek
ivid
Ġblocker
Ġgraduated
Token
Apps
ring
Ġ2017
ĠEstonia
1600
ãĥį
ĠReport
Ġtent
Ġfield
igroup
ikh
457
Ġtimers
ĠDelicious
Ġfrequent
ĠBeir
Ġtiny
aspers
Community
ĠKers
Next
speaking
nut
Ġrings
ĠModi
Ġpropagate
Ġoverlooked
Ġdetrimental
Ġdashboard
kson
Ġsupplements
dates
Ġadam
Cro
alon
ĠTiger
shed
ĠUW
ĠElectronics
Ġenvisioned
Ġgal
BP
illy
601
ggles
Ġcaut
Ġspoiler
ĠGerman
Ġbargaining
asty
Ġinsurance
ĠMartial
Ġprocurement
ĠIsabel
Ġsizable
Ġ$$
Ġbalcony
mode
Ġregulated
Ġelapsed
Ġadvant
Ġå¤
Ġnominee
Ġelder
ĠMonkey
ĠPostal
helm
Ġcombat
ĠPrel
eros
electric
hester
Ġfertile
302
ĠBirch
Ġanesthesia
Ġturtles
Ġseeing
ĠFrom
ĠSometimes
Ġ264
planet
ĠATK
Arab
Ġfallen
Cash
ĠMilky
ĠCoat
iphone
Ġrevive
lings
ĠAppro
to
pret
sein
ĠOperation
LEASE
ĠDO
Al
Ġpaint
Ġbordering
uthor
Ġpublication
starter
ĠBatt
Ġpossibly
ĠDagger
Ġrobberies
Ġbail
Ġactivists
Ġcontainers
Ġheadquartered
iery
Ġmentor
Ġdesigners
strike
Ġcasts
Ġ\"
verbal
Ġwired
advertising
ĠTosh
ĠSnapchat
"'
PU
intention
Ġsurvival
going
Ġcaliber
Ġdefenses
poll
ĠBlackburn
ĠSW
Ġelig
Ġalien
ĠPap
Ġtumors
ĠDragon
antics
sac
Variable
ĠPanc
Ġreplen
Ġdiminish
Ġyelling
oya
FFER
Ġsync
Elsa
ophen
Ġendurance
Ġnegotiated
ĠBoost
Ġsolemn
Ġpriority
Ġabsorbing
ovic
ĠPing
ometry
Ġinstance
Ġboosters
698
Ġtheolog
ongs
inflamm
Ġprofiling
wayne
cut
umar
Ġrobbing
Ġlegislators
ĠStruggle
Ġdd
ĠRu
Ġresusc
imilation
ĠQual
ĠWilliam
Ġkcal
ĠDiscipline
Ġ215
Ġnamed
ĠCampaign
Ġexcavation
Ġincapac
Ġlooking
ĠLIM
rosc
Ġnone
Ġpra
Ġcaller
Reloaded
ĠWoodward
ĠWindsor
ĠArchitects
Ġruns
Ġheights
nuts
Ġtoilets
ĠCommonwealth
cohol
Ġundertaking
Ġbundles
ties
imov
Ġethic
ĠSubcommittee
far
Ġdesperate
ĠJenkins
hl
ĠUnfortunately
Ġdepicts
sama
starting
ĠFound
Ġincapable
Ġtasted
archy
zik
ĠGriffith
DR
involved
ĠBeans
ĠInstead
Ġcarving
Ġposes
372
Ġsickness
Bull
Ġchoices
;;;;;;;;;;;;
ĠMongolia
bone
Ġdepending
Ġspans
Ġduties
Ġpension
ĠGoldberg
ãģķ
Ġextant
ĠNotes
omi
ĠFISA
ribute
Ġaccessible
Ġpads
Ġmell
Ġerection
uders
Ġbecome
Ġstalk
gets
stroke
thin
Ġcapture
Ġveto
OWS
Ġexhibitions
Ġparadox
existence
Ġprominent
Ġcontamination
ĠâĹı
Ġrecept
tier
mos
Ġwriters
abouts
Ġlungs
peer
":{"
ĠPW
ĠCr
ĠATF
MAC
ĠMori
Ġharbor
leading
Ġfrom
ĠdB
ĠDish
Ġquarterbacks
Ġpretend
Ġreceptors
Ġbrow
enos
Ġpathology
ĠShades
Ġdow
bones
Ġsophistic
sci
ĠWeekly
ĠTheft
Ġ218
umbn
har
Ġbuilds
Ġmobilize
Ġedition
Ġmental
ĠVerge
Ġlays
Ġboundary
Ġspell
ĠeBook
eker
Ġdrawer
ieves
Ġdigest
ĠGrow
Ġheadsets
Ġdisciple
ĠParties
ll
ĠMajor
129
Ġspons
ĠClothing
Ġge
im
ĠLegislative
rupted
ãĥ¼
126
Ġplacement
ĠGeh
Ġsplend
ĠGenerator
Ġlease
rosis
ĠActually
ĠRomanian
amia
Ġwra
offline
cial
ĠPunk
intent
Ġsafety
Ġpossibility
Ġstruggle
ãģĨ
Ġmedications
ĺħ
Ġdime
liv
660
UME
Ġchats
ĠShit
olson
ains
ĠMe
ĠPitch
Ġmaximize
ĠRelax
ĠOss
ĠLet
ĠJungle
ĠBlackwell
ĠTomato
Ġnotation
ĠBurger
ĠSetting
orthodox
ORD
ĠNumber
Ġinsulting
1979
Ġconstruction
Ġdragging
Ġmounting
ĠEnh
Understanding
Ġident
Ġfundraiser
Ġprimitive
Ġinitiative
Ġlegendary
Ġavocado
ĠCongressional
ĠLebanese
0200
Ġplea
Ġinsults
Ġ550
Ġensl
enstein
hur
ĠLich
Ġtechnique
Ġlia
èĪ
Ġcomes
Ġparity
management
rower
Ġescape
ĠSorce
ĠBLACK
Ġimpossibility
Ġopportunities
hhhh
ĠMaver
Ġsurfaces
ĠJugg
lyak
Ġplaintiff
ĠRed
Ġinserted
ĠDun
ĠDol
ĠWaterloo
Ob
Ġscenes
Ġsimultaneously
ĠLama
Ġwatershed
ĠRim
aturated
string
ĠWhatsApp
ĠReno
ĠSchwar
Ġpossible
Ġfavored
Ġdock
Quick
Ġdiets
LOAD
Ġconf
Ġ205
Ġcontinuity
ĠGuatemala
Ġshow
Ġoverwhel
Ġpint
ZX
uppet
utions
ĠCanada
Ġsimplest
plain
ĠTape
ĠBL
Brow
ý
287
eeper
ĠThib
Ġretaliation
mar
ĠSTORY
ĠOv
ĠCardinal
Mars
ĠSitting
Ġold
Process
ĠKou
RGB
uns
Ġchirop
ĠPakistani
Dev
ĠBernie
aby
Ġ83
ĠLang
Ġboycott
AR
ordon
Ġvibrant
cig
ĠReduction
DON
rina
ĠElectric
ĠPCB
ĠDIRECT
ĠPhill
Ġcrushing
409
terror
Ġpreach
Ġ1939
Ġnewly
ĠHitch
Ġsulf
ĠOnline
ĠHirosh
ĠLOOK
Ġemployees
Ġhinted
ĠMol
ĠMain
walking
ĠMord
ĠNanto
Ġpaternal
ĠDepend
ĠAnxiety
ĠCarlos
Ġlifeless
ĠMayo
Albert
Ġsupplementation
esp
ĠArmstrong
SC
Narr
Ġsuccumb
Ġtamp
Ġerroneous
Ġdepicting
ĠEthiopian
ĠCapture
gpu
asley
Low
dk
Ġpains
Ġvideo
Ġceases
Ġskinny
ya
Changes
Ġ770
ĠWall
othal
ĠBlvd
Ġplants
eq
Ġalso
ĠMasquerade
ĠCyr
ĠMulcair
Ġcoerced
Ġhippocampus
Ġblat
Fe
Ġcatastrophic
Ġ120
Ġrubbed
Help
ĠMcLaren
Ġinter
Ġconsuming
Ġrecomb
DK
biased
Ġload
ĠTPP
Ġdoing
bl
ĠRating
ĠEater
rub
Ġtot
icist
Ġdepos
ĠMoney
Ġdissatisfied
Ġassumptions
Ġsubstantive
Ġscholarly
ĠBrass
sever
Ġ999
ĠDISTRICT
ĠOrd
ĠRos
Jo
kids
026
Ġadorable
Ġburglary
Ġmisconceptions
æ³
Ġbattery
Ġmole
ĠKut
ĠMedline
armac
Ġimmobil
ĠReplacement
Palestinian
Ġmultiplied
atoes
Ġharbour
oided
leness
Ġenlightened
ĠZionist
Spot
Ġpreferential
Ġclinics
ĠLoc
Ġtaken
ĠGHz
eter
ogens
ĠMagnet
uber
oeuv
Ġsk
Ġprincip
Ġtoday
ĠFallon
ĠTexans
antes
ĠEverett
ĠPolice
cast
esc
mini
Ġsecond
ĠQuebec
saw
Ġroll
ĠMasters
Ġexercises
ĠAmen
Ġunsur
wheel
ĠGrave
ks
ĠFiat
resa
Åį
Ġsuperhero
Ġsnippets
ĠRig
ĠRepresent
Ġredu
{
Ġchocolate
Ġaftermath
Ġelectoral
ĠCertain
Ġgrammar
į
Ġestimated
ERE
rait
Ġnewer
ĠDemocratic
QUIRE
Ġinclusion
hung
ĠMack
Ġ32
obs
Ġtemporarily
Ġdreaded
Ð°
ĠEMP
Usage
ĠZimbabwe
ull
guided
\-
Ġrinse
Ġexercising
ĠLump
Ġowe
ĠAnth
trump
ĠAmpl
Ġnovelist
ĠLiverpool
Ġbrewery
llular
Recipe
ĠGrayson
igation
Ġsucc
Ġgoverned
338
Fit
ĠThose
actor
Ġfirmware
ĠTrace
ĠDis
DOWN
dem
Ġgarbage
Ġprinces
Ġdeadline
Ġwinds
vP
Ġstrapped
ĠEmails
idepress
Ġbrilliantly
Ġlightweight
Ġoccurrence
Ġadvising
Ġfeats
ĠBrigham
ĠAuthority
ĠGermany
Ġspilling
ĠXVI
Ġgest
Ā
Ġalphabet
Ġdoct
110
:"
haired
Ġdestination
Ġupright
ĠGuang
Ġsequels
inction
ĠWiggins
Ad
Ġpolio
ĠRams
ĠCommunism
Spect
Ġcompleting
paren
Ġvanilla
ĠProc
Ġtreatment
ĠHannity
Ġrental
Ġsubscrib
Ġimmune
tower
ĠClone
ĠPist
ĠAzerbai
eal
Ġknowing
ĠTexas
Column
ĠNotting
ividually
Ġclients
Ġyr
Ġign
Ġaddition
Ġmovement
nostic
West
Ġexhibit
ĠTobias
Ġspouses
cker
December
Ġwrath
ĠFeder
ĠAss
ĠAnt
Ġo
ĠAmon
Ġdome
ĠRobert
Ġsecession
ĠMurray
olor
Ġplus
Ġnobody
Ġtriggers
Ġopportun
attered
xia
crow
aneously
ighter
Ġamended
Ġpolls
Like
abiding
ACTION
ĠVW
dam
Ġstationary
ĠShu
ĠCance
ĠSammy
bay
odge
ĠKoreans
actly
lov
Ġdiscretionary
Ġgraduation
Ġexplo
ĠMood
ĠBabe
Ġpars
Ġstatutory
aps
APH
ategy
ĠHuh
ĠDarrell
aliation
Ġsling
Ġchin
tions
ĠYen
ĠQuinn
ĠRecogn
ious
Ġconfirming
upp
Ġbunny
Open
å£«
Ġthrilled
ĠBella
ĠNass
Ġschemes
bage
Ġ200
Ġnormative
Discussion
Pool
Ġ1904
Ġparliament
ĠAndrew
Ġincarcer
Ġrend
ç·
ĠEnergy
Adv
Ġdecreases
perty
ana
Ġaggregate
ĠTerra
Ġexamples
Ġarte
ĠIc
Ġoccult
ĠSidney
odd
ĠResidential
Ġbask
eks
Ġgraphene
ĠFantastic
ĠKenobi
ĠJenn
Ñı
agher
rote
ĠMS
Ġoperates
words
ustainable
Ġ159
Luck
usage
Level
served
formerly
ĠParad
Config
Ġprogressed
ĠAnger
Ġ970
Ġconserve
alm
Present
Ġslit
Ġsibling
Ġilluminate
Ġcouple
Ġbump
Ġeating
Ġp
Ġremoving
1500
Ġfederally
ollow
Ġhawk
Ġaccommodations
Ġtoys
ĠDefeat
ĠGlas
governmental
Ġdragged
ĠBerkeley
Ġpref
ĠPace
Ġphotos
Ġsurged
drop
Ġrobe
Ë
okes
iddy
Ġ@
ĠTale
Ġgroceries
ĠCornel
Japanese
ATCH
Ġvacuum
ĠMorris
PAC
ographs
ĠRussian
Ġinfancy
.*
Will
Within
Ġtrolls
Ġ~/.
Ġintensify
ois
Co
Motor
inspired
Ġinvaluable
shape
Ġcalling
Ġpermit
Ġextermination
Percent
ĠMultiplayer
Ġrebutt
ĠBolton
Ġauthors
ĠBaby
ĠPorsche
ĠTablet
rying
ĠSEN
potion
Ġfaith
ĠValue
Ġspurred
destruct
ĠBelgium
ĠSch
atically
ĠAmber
culation
aching
Ġwitty
Ġquo
Ġpressing
Ġconclud
ĠHiggins
Ġcreate
Ġverified
rend
Ġprivat
ĠIOC
ĠHELP
ĠArticles
ryption
Ġfired
Ġchatting
Ġcentrally
ĠChristina
Ġkilometers
Ġinsulation
?!
Ġ450
Ġclub
ĠRonaldo
Ġpercentage
Ġpartnership
Edward
ĠQuery
ĠAmazing
Ġheal
Ġbeaches
ĝ
Ġexamination
ĠSergio
Ġmysql
Ġcorrelates
eways
Ġmonitor
athing
Ġ2001
CLE
ĠAlic
ĠBus
iband
skill
Ġoccup
ILA
oir
ussy
ico
Ġinformational
Ġmeteor
UMP
ĠFilipino
ĠNash
ĠTreasurer
Ġhereafter
Ġconscious
ulhu
ĠSalary
Xi
ĠSalvation
Ġsailing
Provider
agen
ĠOak
Ġlift
ĠIM
Ġdistinctions
ĠWink
Ġpipelines
ĠDillon
ĠDeals
Ġcitizenship
Canadian
Ġenchanted
970
itudes
Ġdeals
ĠLav
ĠBree
613
ĠBlank
Report
Ġmisunderstood
iri
Ġlasting
ĠHart
Grant
Ġblue
Ġchecked
Application
Ġinexper
eries
caster
Ġlens
ĠAhmad
advant
Ġtyp
Ġhips
Ġwrong
ĠExcel
Ġclouds
449
Ġuphold
Ġmov
Ġ=>
imental
Ġsustainable
ĠKens
olds
Ġjournalism
Ġra
ĠHealthcare
ĠPig
ĠTrudeau
asket
Ġfavoring
Ġlargest
omsky
Ġrpm
Ġfounder
ĠTunnel
ĠFay
elsius
illion
Ġwreck
Ġ(<
Ġmanuals
ums
dit
Ġmenace
Manager
ĠMuch
Ãĥ
Ł
Ġsidelines
Ġhardest
mong
omed
Ġcommemor
NFL
ĠNug
Ġpertaining
ĠNam
ĠCynthia
ACP
Ġcondo
Ġants
Ġtac
ĠExpo
Ġprotector
Ġarrivals
Buyable
ĠTogether
isSpecial
Ġunconventional
identified
Wa
aterasu
ĠBlock
Ġheels
Ġlearning
Ġspec
ĠEnterprises
Ġmanpower
¶æ
Ġ*)
ise
Ġ********************************
×Ĳ
ĠMaine
ĠPeng
Ast
Ğ
Ġpoint
Ġatheists
ridden
Em
ĠHay
HTML
ĠPixel
ĠSic
Ġjab
Ġphenomenon
Ġgearing
Ġrenov
Ġadvise
"))
ĠZamb
Ġjammed
Ent
Ġsentiment
ĠTE
Ġstandalone
ĠRU
ava
endor
ize
Ġnurses
culated
Ġsnug
Ġkitchen
[...]
